{
  "version": "1.0",
  "truncation": null,
  "padding": null,
  "added_tokens": [
    {
      "id": 0,
      "content": "<PAD>",
      "single_word": false,
      "lstrip": false,
      "rstrip": false,
      "normalized": false,
      "special": true
    },
    {
      "id": 1,
      "content": "<SOS>",
      "single_word": false,
      "lstrip": false,
      "rstrip": false,
      "normalized": false,
      "special": true
    },
    {
      "id": 2,
      "content": "<EOS>",
      "single_word": false,
      "lstrip": false,
      "rstrip": false,
      "normalized": false,
      "special": true
    },
    {
      "id": 3,
      "content": "<UNK>",
      "single_word": false,
      "lstrip": false,
      "rstrip": false,
      "normalized": false,
      "special": true
    }
  ],
  "normalizer": null,
  "pre_tokenizer": {
    "type": "Whitespace"
  },
  "post_processor": null,
  "decoder": null,
  "model": {
    "type": "BPE",
    "dropout": null,
    "unk_token": "<UNK>",
    "continuing_subword_prefix": null,
    "end_of_word_suffix": null,
    "fuse_unk": false,
    "byte_fallback": false,
    "ignore_merges": false,
    "vocab": {
      "<PAD>": 0,
      "<SOS>": 1,
      "<EOS>": 2,
      "<UNK>": 3,
      "!": 4,
      "\"": 5,
      "#": 6,
      "$": 7,
      "%": 8,
      "&": 9,
      "'": 10,
      "(": 11,
      ")": 12,
      "*": 13,
      "+": 14,
      ",": 15,
      "-": 16,
      ".": 17,
      "/": 18,
      "0": 19,
      "1": 20,
      "2": 21,
      "3": 22,
      "4": 23,
      "5": 24,
      "6": 25,
      "7": 26,
      "8": 27,
      "9": 28,
      ":": 29,
      ";": 30,
      "<": 31,
      "=": 32,
      ">": 33,
      "?": 34,
      "@": 35,
      "A": 36,
      "B": 37,
      "C": 38,
      "D": 39,
      "E": 40,
      "F": 41,
      "G": 42,
      "H": 43,
      "I": 44,
      "J": 45,
      "K": 46,
      "L": 47,
      "M": 48,
      "N": 49,
      "O": 50,
      "P": 51,
      "Q": 52,
      "R": 53,
      "S": 54,
      "T": 55,
      "U": 56,
      "V": 57,
      "W": 58,
      "X": 59,
      "Y": 60,
      "Z": 61,
      "[": 62,
      "\\": 63,
      "]": 64,
      "^": 65,
      "_": 66,
      "`": 67,
      "a": 68,
      "b": 69,
      "c": 70,
      "d": 71,
      "e": 72,
      "f": 73,
      "g": 74,
      "h": 75,
      "i": 76,
      "j": 77,
      "k": 78,
      "l": 79,
      "m": 80,
      "n": 81,
      "o": 82,
      "p": 83,
      "q": 84,
      "r": 85,
      "s": 86,
      "t": 87,
      "u": 88,
      "v": 89,
      "w": 90,
      "x": 91,
      "y": 92,
      "z": 93,
      "{": 94,
      "|": 95,
      "}": 96,
      "~": 97,
      "ª": 98,
      "«": 99,
      "¯": 100,
      "²": 101,
      "³": 102,
      "´": 103,
      "·": 104,
      "»": 105,
      "é": 106,
      "ð": 107,
      "ö": 108,
      "ø": 109,
      "ˆ": 110,
      "˜": 111,
      "Σ": 112,
      "ά": 113,
      "έ": 114,
      "ή": 115,
      "α": 116,
      "γ": 117,
      "δ": 118,
      "ε": 119,
      "ι": 120,
      "κ": 121,
      "μ": 122,
      "ν": 123,
      "ξ": 124,
      "ο": 125,
      "π": 126,
      "ρ": 127,
      "ς": 128,
      "υ": 129,
      "φ": 130,
      "χ": 131,
      "ω": 132,
      "ό": 133,
      "،": 134,
      "٫": 135,
      "‐": 136,
      "‑": 137,
      "–": 138,
      "—": 139,
      "―": 140,
      "‘": 141,
      "’": 142,
      "‚": 143,
      "“": 144,
      "”": 145,
      "„": 146,
      "†": 147,
      "‡": 148,
      "•": 149,
      "…": 150,
      "′": 151,
      "″": 152,
      "‹": 153,
      "›": 154,
      "⁄": 155,
      "€": 156,
      "→": 157,
      "−": 158,
      "∞": 159,
      "─": 160,
      "│": 161,
      "└": 162,
      "├": 163,
      "✔": 164,
      "✘": 165,
      "❓": 166,
      "ツ": 167,
      "・": 168,
      "﻿": 169,
      "in": 170,
      "at": 171,
      "er": 172,
      "on": 173,
      "re": 174,
      "th": 175,
      "or": 176,
      "se": 177,
      "ar": 178,
      "en": 179,
      "al": 180,
      "st": 181,
      "de": 182,
      "--": 183,
      "am": 184,
      "an": 185,
      "es": 186,
      "ti": 187,
      "le": 188,
      "the": 189,
      "is": 190,
      "to": 191,
      "ing": 192,
      "co": 193,
      "ur": 194,
      "pe": 195,
      "\"\"": 196,
      "et": 197,
      "ro": 198,
      "ch": 199,
      "if": 200,
      "as": 201,
      "ed": 202,
      "lo": 203,
      "par": 204,
      "um": 205,
      "ut": 206,
      "tion": 207,
      "of": 208,
      "for": 209,
      "----": 210,
      "si": 211,
      "val": 212,
      "ct": 213,
      "li": 214,
      "ce": 215,
      "urn": 216,
      "ra": 217,
      "sel": 218,
      "self": 219,
      "ul": 220,
      "el": 221,
      "ame": 222,
      "di": 223,
      "ty": 224,
      "and": 225,
      "un": 226,
      "ue": 227,
      "param": 228,
      "ate": 229,
      "):": 230,
      "it": 231,
      "ret": 232,
      "ad": 233,
      "fi": 234,
      "la": 235,
      "ex": 236,
      "ata": 237,
      "def": 238,
      "return": 239,
      "one": 240,
      "wi": 241,
      "\"\"\"": 242,
      "ma": 243,
      ">>": 244,
      "no": 245,
      "me": 246,
      "ent": 247,
      "con": 248,
      "res": 249,
      "str": 250,
      "ati": 251,
      "type": 252,
      "int": 253,
      "``": 254,
      "put": 255,
      "None": 256,
      "name": 257,
      "ke": 258,
      "be": 259,
      "id": 260,
      "ze": 261,
      "ck": 262,
      "mo": 263,
      "sh": 264,
      "ult": 265,
      "params": 266,
      "num": 267,
      "dex": 268,
      "ction": 269,
      "data": 270,
      "he": 271,
      "arg": 272,
      "ers": 273,
      "col": 274,
      "not": 275,
      "up": 276,
      "ation": 277,
      "ab": 278,
      "len": 279,
      "op": 280,
      "ge": 281,
      "()": 282,
      "ver": 283,
      "ig": 284,
      "size": 285,
      "cal": 286,
      "_p": 287,
      "mp": 288,
      "tr": 289,
      "',": 290,
      "out": 291,
      "ve": 292,
      "with": 293,
      "hparams": 294,
      "ol": 295,
      "valu": 296,
      "ob": 297,
      "atch": 298,
      "set": 299,
      "ten": 300,
      "qu": 301,
      "d_": 302,
      "tf": 303,
      "))": 304,
      "index": 305,
      "sor": 306,
      "ape": 307,
      "_s": 308,
      "values": 309,
      "list": 310,
      "bo": 311,
      "ne": 312,
      ">>>": 313,
      "ray": 314,
      "value": 315,
      "ht": 316,
      "s_": 317,
      "ces": 318,
      "ap": 319,
      "obj": 320,
      "ll": 321,
      "use": 322,
      "form": 323,
      "ly": 324,
      "pro": 325,
      "eri": 326,
      "get": 327,
      "del": 328,
      "we": 329,
      "ep": 330,
      "cl": 331,
      "ault": 332,
      "),": 333,
      "shape": 334,
      "ax": 335,
      "dtype": 336,
      "rom": 337,
      "er_": 338,
      "ath": 339,
      "array": 340,
      "batch": 341,
      "Ret": 342,
      "from": 343,
      "Return": 344,
      "..": 345,
      "fun": 346,
      "are": 347,
      "ri": 348,
      "_size": 349,
      "do": 350,
      "input": 351,
      "default": 352,
      "time": 353,
      "ding": 354,
      "umn": 355,
      "Tr": 356,
      "ta": 357,
      "lay": 358,
      "wh": 359,
      "(\"": 360,
      "key": 361,
      "ight": 362,
      "\",": 363,
      "In": 364,
      "],": 365,
      "ect": 366,
      "pre": 367,
      "------": 368,
      "sion": 369,
      "t_": 370,
      "py": 371,
      "tra": 372,
      "lab": 373,
      "ther": 374,
      "string": 375,
      "column": 376,
      "True": 377,
      "amp": 378,
      "ment": 379,
      "ds": 380,
      "ass": 381,
      "po": 382,
      "00": 383,
      "Returns": 384,
      "rame": 385,
      "able": 386,
      "les": 387,
      "ror": 388,
      "==": 389,
      "alse": 390,
      "('": 391,
      "])": 392,
      "gth": 393,
      "em": 394,
      "The": 395,
      "ter": 396,
      "log": 397,
      "False": 398,
      "_di": 399,
      "end": 400,
      "per": 401,
      "Data": 402,
      "ca": 403,
      "length": 404,
      "_b": 405,
      "model": 406,
      "that": 407,
      ").": 408,
      "result": 409,
      "else": 410,
      "com": 411,
      "der": 412,
      "np": 413,
      "file": 414,
      "all": 415,
      "max": 416,
      "label": 417,
      "Par": 418,
      "object": 419,
      "num_": 420,
      "eters": 421,
      "vi": 422,
      "axis": 423,
      "output": 424,
      "df": 425,
      "by": 426,
      "function": 427,
      "te": 428,
      "new": 429,
      "ise": 430,
      "us": 431,
      "_f": 432,
      "ans": 433,
      "inst": 434,
      "ask": 435,
      "ba": 436,
      "app": 437,
      "ance": 438,
      "su": 439,
      "args": 440,
      "so": 441,
      "ali": 442,
      "ary": 443,
      "If": 444,
      "code": 445,
      "che": 446,
      "eries": 447,
      "rror": 448,
      "Error": 449,
      "_st": 450,
      "atten": 451,
      "')": 452,
      "train": 453,
      "DataF": 454,
      "fo": 455,
      "this": 456,
      "path": 457,
      "DataFrame": 458,
      "lock": 459,
      "date": 460,
      "ames": 461,
      "ext": 462,
      "Param": 463,
      "will": 464,
      "row": 465,
      "_m": 466,
      "ort": 467,
      "ist": 468,
      "['": 469,
      "format": 470,
      "loat": 471,
      "Ar": 472,
      "du": 473,
      "targ": 474,
      "den": 475,
      "tional": 476,
      "cat": 477,
      "attention": 478,
      "ima": 479,
      "to_": 480,
      "age": 481,
      "cur": 482,
      "\")": 483,
      "im": 484,
      "target": 485,
      "sp": 486,
      "raise": 487,
      "ori": 488,
      "dict": 489,
      "ory": 490,
      "ari": 491,
      "fer": 492,
      "ine": 493,
      "ype": 494,
      "ence": 495,
      "_name": 496,
      "ac": 497,
      "low": 498,
      "Ten": 499,
      "od": 500,
      "Tensor": 501,
      "Index": 502,
      "ach": 503,
      "gs": 504,
      "----------": 505,
      "ber": 506,
      "nt": 507,
      "vel": 508,
      "tok": 509,
      "om": 510,
      "_re": 511,
      "Series": 512,
      "lement": 513,
      "war": 514,
      "Parameters": 515,
      "':": 516,
      "([": 517,
      "ts": 518,
      "ure": 519,
      "pec": 520,
      "instance": 521,
      "get_": 522,
      "ates": 523,
      "ust": 524,
      "comp": 525,
      "ulti": 526,
      "min": 527,
      "los": 528,
      "columns": 529,
      "Ex": 530,
      "ded": 531,
      "can": 532,
      "cor": 533,
      "names": 534,
      "wor": 535,
      "\":": 536,
      "sed": 537,
      "float": 538,
      "ag": 539,
      "gro": 540,
      "our": 541,
      "token": 542,
      "mask": 543,
      "dep": 544,
      "iter": 545,
      "valid": 546,
      "kw": 547,
      "fe": 548,
      "text": 549,
      "ses": 550,
      "head": 551,
      "pes": 552,
      "ave": 553,
      "meth": 554,
      "layers": 555,
      "='": 556,
      "is_": 557,
      "rop": 558,
      "like": 559,
      "ow": 560,
      "orm": 561,
      "ed_": 562,
      "zer": 563,
      "cs": 564,
      "other": 565,
      "exp": 566,
      "whi": 567,
      "each": 568,
      "Th": 569,
      "level": 570,
      "oc": 571,
      "tensor": 572,
      "sequ": 573,
      "ator": 574,
      "bool": 575,
      "...": 576,
      "da": 577,
      "pad": 578,
      "star": 579,
      "dim": 580,
      "weight": 581,
      "class": 582,
      "cre": 583,
      "cep": 584,
      "image": 585,
      "ange": 586,
      "group": 587,
      "sing": 588,
      "Type": 589,
      "ateg": 590,
      "-------": 591,
      "number": 592,
      "item": 593,
      "_in": 594,
      "av": 595,
      "rst": 596,
      "_id": 597,
      "ip": 598,
      "64": 599,
      "Val": 600,
      "**": 601,
      "que": 602,
      "append": 603,
      "gi": 604,
      "kwargs": 605,
      "il": 606,
      "ere": 607,
      "ample": 608,
      "This": 609,
      "Con": 610,
      "inputs": 611,
      "ger": 612,
      "optional": 613,
      "sub": 614,
      "on_": 615,
      "element": 616,
      "trans": 617,
      "used": 618,
      "first": 619,
      "step": 620,
      "y_": 621,
      "enco": 622,
      "comm": 623,
      "ifi": 624,
      "imp": 625,
      "its": 626,
      "isinstance": 627,
      "spec": 628,
      "block": 629,
      "ble": 630,
      "drop": 631,
      "ot": 632,
      "ser": 633,
      "elif": 634,
      "map": 635,
      "batch_size": 636,
      "ategori": 637,
      "attr": 638,
      "act": 639,
      "uld": 640,
      "Args": 641,
      "01": 642,
      "os": 643,
      "which": 644,
      "c_": 645,
      "lect": 646,
      "tim": 647,
      "conver": 648,
      "idden": 649,
      "pla": 650,
      "method": 651,
      "gra": 652,
      "ven": 653,
      "_type": 654,
      "has": 655,
      "ms": 656,
      "mem": 657,
      "nd": 658,
      "ack": 659,
      "hidden": 660,
      "etri": 661,
      "tup": 662,
      "action": 663,
      "labels": 664,
      "--------": 665,
      "nel": 666,
      "Value": 667,
      "`.": 668,
      "ener": 669,
      "__": 670,
      "sc": 671,
      "copy": 672,
      "dis": 673,
      "].": 674,
      "vari": 675,
      "lic": 676,
      "pd": 677,
      "_length": 678,
      "diction": 679,
      "types": 680,
      "eval": 681,
      "coun": 682,
      "depth": 683,
      "feat": 684,
      "amples": 685,
      "tions": 686,
      "_r": 687,
      "call": 688,
      "tain": 689,
      "sum": 690,
      "but": 691,
      "layer": 692,
      "lat": 693,
      "ning": 694,
      "new_": 695,
      "back": 696,
      "ocab": 697,
      "sequence": 698,
      "ents": 699,
      "ould": 700,
      "inte": 701,
      "add_": 702,
      "iti": 703,
      "na": 704,
      "ted": 705,
      "read": 706,
      "vocab": 707,
      "norm": 708,
      "indi": 709,
      "fig": 710,
      "memory": 711,
      "order": 712,
      "wid": 713,
      "arr": 714,
      "line": 715,
      "ations": 716,
      "parse": 717,
      "fil": 718,
      "andas": 719,
      "']": 720,
      "only": 721,
      "place": 722,
      "lef": 723,
      "have": 724,
      "func": 725,
      "al_": 726,
      "ative": 727,
      "rit": 728,
      "contain": 729,
      "fin": 730,
      "quer": 731,
      "loss": 732,
      "emb": 733,
      "ated": 734,
      "boo": 735,
      "width": 736,
      "ValueError": 737,
      "bu": 738,
      "park": 739,
      "multi": 740,
      "_path": 741,
      "any": 742,
      "max_": 743,
      "ource": 744,
      "uni": 745,
      "right": 746,
      "rect": 747,
      "red": 748,
      "proces": 749,
      "ou": 750,
      "ias": 751,
      "pi": 752,
      "state": 753,
      "inter": 754,
      "_pro": 755,
      "chan": 756,
      ".\"\"\"": 757,
      "curre": 758,
      "fill": 759,
      "temp": 760,
      "given": 761,
      "dow": 762,
      "categori": 763,
      "top": 764,
      "Re": 765,
      "_value": 766,
      "tuple": 767,
      ":`": 768,
      "ndarray": 769,
      "fre": 770,
      "bin": 771,
      "::": 772,
      "Se": 773,
      "lit": 774,
      "check": 775,
      "range": 776,
      "conv": 777,
      "embed": 778,
      "ast": 779,
      "scal": 780,
      "_dir": 781,
      "start": 782,
      "10": 783,
      "Na": 784,
      "amb": 785,
      "version": 786,
      "datetime": 787,
      "load": 788,
      "table": 789,
      "gener": 790,
      "pandas": 791,
      "lear": 792,
      "lice": 793,
      "=\"": 794,
      "ate_": 795,
      "clu": 796,
      "training": 797,
      "und": 798,
      "should": 799,
      "where": 800,
      "ff": 801,
      "[]": 802,
      "fix": 803,
      "same": 804,
      "resh": 805,
      "tor": 806,
      "into": 807,
      "dataset": 808,
      "uct": 809,
      "n_": 810,
      "[\"": 811,
      "der_": 812,
      "excep": 813,
      "->": 814,
      "mean": 815,
      "sent": 816,
      "last": 817,
      "items": 818,
      "():": 819,
      "{}": 820,
      "non": 821,
      "specifi": 822,
      "au": 823,
      "base": 824,
      "transform": 825,
      "andom": 826,
      "parameters": 827,
      "keys": 828,
      "sig": 829,
      "integer": 830,
      "_index": 831,
      "pa": 832,
      "ambda": 833,
      "oin": 834,
      "import": 835,
      "numpy": 836,
      "padding": 837,
      "port": 838,
      "when": 839,
      "x_": 840,
      "tre": 841,
      "over": 842,
      "reg": 843,
      "argum": 844,
      "metri": 845,
      "sup": 846,
      "writ": 847,
      "join": 848,
      "sq": 849,
      "_pre": 850,
      "enti": 851,
      "ension": 852,
      "add": 853,
      "local": 854,
      "qui": 855,
      "query": 856,
      "pr": 857,
      "_to_": 858,
      "left": 859,
      "mat": 860,
      "cast": 861,
      "common_": 862,
      "32": 863,
      "height": 864,
      "embedding": 865,
      "hether": 866,
      "dropout": 867,
      "torch": 868,
      "ava": 869,
      "List": 870,
      "e_": 871,
      "ir": 872,
      "deco": 873,
      "make": 874,
      "heads": 875,
      "sco": 876,
      "info": 877,
      "led": 878,
      "_dict": 879,
      "lim": 880,
      "orig": 881,
      "gr": 882,
      "initi": 883,
      "NaN": 884,
      "_list": 885,
      "lean": 886,
      "using": 887,
      "error": 888,
      "sition": 889,
      "``.": 890,
      "match": 891,
      "try": 892,
      "_sco": 893,
      "rows": 894,
      "sen": 895,
      "enc": 896,
      "aliz": 897,
      "variable": 898,
      "decode": 899,
      "mode": 900,
      "ull": 901,
      "stri": 902,
      "must": 903,
      "ph": 904,
      "ures": 905,
      "struct": 906,
      "_block": 907,
      "channel": 908,
      "count": 909,
      "mary": 910,
      "oo": 911,
      "js": 912,
      "point": 913,
      "returns": 914,
      "present": 915,
      "rel": 916,
      "frame": 917,
      "lib": 918,
      "pon": 919,
      "tp": 920,
      "ression": 921,
      "allow": 922,
      "delta": 923,
      "indices": 924,
      "lambda": 925,
      "ay": 926,
      "``,": 927,
      "_data": 928,
      "sy": 929,
      "lin": 930,
      "dd": 931,
      "dif": 932,
      "you": 933,
      "config": 934,
      "filt": 935,
      "sort": 936,
      "cls": 937,
      "doc": 938,
      "logits": 939,
      "ctor": 940,
      "eld": 941,
      "For": 942,
      "feature": 943,
      "Mo": 944,
      "concat": 945,
      "och": 946,
      "parti": 947,
      "chema": 948,
      "dule": 949,
      "'.": 950,
      "dimension": 951,
      "RD": 952,
      "vector": 953,
      "select": 954,
      "tokens": 955,
      "ant": 956,
      "_step": 957,
      "ward": 958,
      "sign": 959,
      "thon": 960,
      "loc": 961,
      "random": 962,
      "ping": 963,
      "cont": 964,
      "\".": 965,
      "net": 966,
      "tz": 967,
      "respon": 968,
      "201": 969,
      "De": 970,
      "quest": 971,
      "dat": 972,
      "_po": 973,
      "current": 974,
      "specified": 975,
      "ker": 976,
      "hparam": 977,
      "then": 978,
      "{'": 979,
      "//": 980,
      "pas": 981,
      "plo": 982,
      "node": 983,
      "arch": 984,
      "ges": 985,
      "nan": 986,
      "ties": 987,
      "freq": 988,
      "spark": 989,
      "exist": 990,
      "[:": 991,
      "targets": 992,
      "tive": 993,
      "char": 994,
      "print": 995,
      "())": 996,
      "pass": 997,
      "rain": 998,
      "epoch": 999,
      "elements": 1000,
      "represent": 1001,
      "ic": 1002,
      "except": 1003,
      "add_hparam": 1004,
      "_file": 1005,
      "hidden_size": 1006,
      "eter": 1007,
      "cache": 1008,
      "+=": 1009,
      "_dim": 1010,
      "wise": 1011,
      "weights": 1012,
      ")]": 1013,
      "exper": 1014,
      "single": 1015,
      "ili": 1016,
      "split": 1017,
      "ong": 1018,
      "env": 1019,
      "example": 1020,
      "RDD": 1021,
      "ON": 1022,
      "reshape": 1023,
      "create": 1024,
      "boolean": 1025,
      "origin": 1026,
      "We": 1027,
      "bet": 1028,
      "nn": 1029,
      "extra": 1030,
      "mod": 1031,
      "update": 1032,
      "\"]": 1033,
      "No": 1034,
      "duce": 1035,
      "passed": 1036,
      "may": 1037,
      "channels": 1038,
      "Fi": 1039,
      "Al": 1040,
      "clas": 1041,
      "common_layers": 1042,
      "_h": 1043,
      "axes": 1044,
      "module": 1045,
      "need": 1046,
      "mis": 1047,
      "beam": 1048,
      "sql": 1049,
      "lable": 1050,
      "emp": 1051,
      "},": 1052,
      "See": 1053,
      "Row": 1054,
      "Col": 1055,
      "af": 1056,
      "Ti": 1057,
      "!=": 1058,
      "Array": 1059,
      "work": 1060,
      "12": 1061,
      "idx": 1062,
      "sample": 1063,
      "run": 1064,
      "comput": 1065,
      "var": 1066,
      "alle": 1067,
      "serv": 1068,
      "inclu": 1069,
      "ext_": 1070,
      "from_": 1071,
      "est": 1072,
      "limit": 1073,
      "direct": 1074,
      "timi": 1075,
      "_shape": 1076,
      "ables": 1077,
      "oper": 1078,
      "categories": 1079,
      "support": 1080,
      "ion": 1081,
      "ard": 1082,
      "tot": 1083,
      "ify": 1084,
      "Cre": 1085,
      "word": 1086,
      "Multi": 1087,
      "indow": 1088,
      "multip": 1089,
      "]]": 1090,
      "rix": 1091,
      "sour": 1092,
      "Py": 1093,
      "ER": 1094,
      "pos": 1095,
      "ear": 1096,
      "case": 1097,
      "_dtype": 1098,
      "schema": 1099,
      "til": 1100,
      "IN": 1101,
      "old": 1102,
      "Str": 1103,
      "[-": 1104,
      "Time": 1105,
      "ec": 1106,
      "Num": 1107,
      "json": 1108,
      "ference": 1109,
      "evalu": 1110,
      "ting": 1111,
      "files": 1112,
      "dictionary": 1113,
      "stack": 1114,
      "_sum": 1115,
      "observ": 1116,
      "indexer": 1117,
      "parameter": 1118,
      "apply": 1119,
      "g_": 1120,
      "late": 1121,
      "source": 1122,
      "filen": 1123,
      "devi": 1124,
      "Di": 1125,
      "Get": 1126,
      "off": 1127,
      "senten": 1128,
      "Com": 1129,
      "side": 1130,
      "optimi": 1131,
      "bot": 1132,
      "TypeError": 1133,
      "Lo": 1134,
      "ical": 1135,
      "vide": 1136,
      "learning": 1137,
      "ences": 1138,
      "pect": 1139,
      "slice": 1140,
      "ub": 1141,
      "write": 1142,
      "An": 1143,
      "lob": 1144,
      "set_": 1145,
      "ST": 1146,
      "collect": 1147,
      "results": 1148,
      "scalar": 1149,
      "zip": 1150,
      "times": 1151,
      "asser": 1152,
      "bias": 1153,
      "Examples": 1154,
      "Op": 1155,
      "_j": 1156,
      "day": 1157,
      "requi": 1158,
      "test": 1159,
      "ase": 1160,
      "ml": 1161,
      "ind": 1162,
      "resource": 1163,
      "Set": 1164,
      "sto": 1165,
      "_con": 1166,
      "wo": 1167,
      "added": 1168,
      "outputs": 1169,
      "prediction": 1170,
      "int64": 1171,
      "().": 1172,
      "reduce": 1173,
      "does": 1174,
      "kernel": 1175,
      "plot": 1176,
      "empty": 1177,
      "codes": 1178,
      "imum": 1179,
      "ally": 1180,
      "_names": 1181,
      "levels": 1182,
      "'])": 1183,
      "_bias": 1184,
      "ibut": 1185,
      "ing_": 1186,
      "RE": 1187,
      "Conver": 1188,
      "two": 1189,
      "hand": 1190,
      "features": 1191,
      "clo": 1192,
      "just": 1193,
      "kip": 1194,
      "than": 1195,
      "igno": 1196,
      "tern": 1197,
      "_get_": 1198,
      "window": 1199,
      "(),": 1200,
      "mb": 1201,
      "100": 1202,
      "alizer": 1203,
      "way": 1204,
      "ess": 1205,
      "exten": 1206,
      "strings": 1207,
      "((": 1208,
      "returned": 1209,
      "fore": 1210,
      "metric": 1211,
      "keep": 1212,
      "cell": 1213,
      "take": 1214,
      "attention_": 1215,
      "`,": 1216,
      "rap": 1217,
      "25": 1218,
      "By": 1219,
      "sure": 1220,
      "Date": 1221,
      "cols": 1222,
      "lection": 1223,
      "encoder_": 1224,
      "actions": 1225,
      "Ke": 1226,
      "http": 1227,
      "latent": 1228,
      "datas": 1229,
      "MultiIndex": 1230,
      "objects": 1231,
      "ception": 1232,
      "convert": 1233,
      "unique": 1234,
      "assert": 1235,
      "ods": 1236,
      ")))": 1237,
      "iteration": 1238,
      "blocks": 1239,
      "equ": 1240,
      "filename": 1241,
      "ypes": 1242,
      "stamp": 1243,
      "blem": 1244,
      "_values": 1245,
      "remo": 1246,
      "alize": 1247,
      "expression": 1248,
      "encoder": 1249,
      "Res": 1250,
      "numeri": 1251,
      "_state": 1252,
      "inplace": 1253,
      "cess": 1254,
      "argument": 1255,
      "=[": 1256,
      "TO": 1257,
      "ging": 1258,
      "_bu": 1259,
      "steps": 1260,
      "process": 1261,
      "ster": 1262,
      "_rel": 1263,
      "layer_": 1264,
      "cond": 1265,
      "encoding": 1266,
      "Also": 1267,
      "_d": 1268,
      "desc": 1269,
      "Exception": 1270,
      "Name": 1271,
      "Not": 1272,
      "ating": 1273,
      "zero": 1274,
      "_info": 1275,
      "logical": 1276,
      "Key": 1277,
      "seq": 1278,
      "disp": 1279,
      "open": 1280,
      "ize": 1281,
      "there": 1282,
      "attribut": 1283,
      "fill_value": 1284,
      "_k": 1285,
      "unk": 1286,
      "cul": 1287,
      "use_": 1288,
      "save": 1289,
      "_dims": 1290,
      "fol": 1291,
      "igh": 1292,
      "images": 1293,
      "original": 1294,
      "how": 1295,
      "best": 1296,
      "_fn": 1297,
      "offset": 1298,
      "St": 1299,
      "msg": 1300,
      "defin": 1301,
      "containing": 1302,
      "whether": 1303,
      "user": 1304,
      "AR": 1305,
      "ency": 1306,
      "des": 1307,
      "color": 1308,
      "summary": 1309,
      "ner": 1310,
      "LE": 1311,
      "ang": 1312,
      "sorted": 1313,
      "fa": 1314,
      "tiv": 1315,
      "rip": 1316,
      "ature": 1317,
      "paralle": 1318,
      "raw": 1319,
      ")):": 1320,
      "://": 1321,
      "Pro": 1322,
      "_mask": 1323,
      "Un": 1324,
      "skip": 1325,
      "''": 1326,
      "ok": 1327,
      "url": 1328,
      "AM": 1329,
      "ew": 1330,
      "peri": 1331,
      "tag": 1332,
      "fn": 1333,
      "data_": 1334,
      "down": 1335,
      "arguments": 1336,
      "ous": 1337,
      "'],": 1338,
      "tmp": 1339,
      "ids": 1340,
      "ead": 1341,
      "stop": 1342,
      "more": 1343,
      "callback": 1344,
      "predict": 1345,
      "_steps": 1346,
      "met": 1347,
      "now": 1348,
      "ref": 1349,
      "ched": 1350,
      "unit": 1351,
      "prob": 1352,
      "timedelta": 1353,
      "start_": 1354,
      "_blocks": 1355,
      "uration": 1356,
      "Whether": 1357,
      "before": 1358,
      "abili": 1359,
      "correspon": 1360,
      "ctypes": 1361,
      "logging": 1362,
      "gradi": 1363,
      "mbol": 1364,
      "als": 1365,
      "tom": 1366,
      "ped": 1367,
      "_v": 1368,
      "Create": 1369,
      "_depth": 1370,
      "mer": 1371,
      "tree": 1372,
      "filter_": 1373,
      "categorical": 1374,
      "##": 1375,
      "AL": 1376,
      "_c": 1377,
      "resol": 1378,
      "classes": 1379,
      "Categori": 1380,
      "separ": 1381,
      "actor": 1382,
      "Model": 1383,
      "chunk": 1384,
      "_sp": 1385,
      "directory": 1386,
      "ween": 1387,
      "vocab_size": 1388,
      "mar": 1389,
      "dense": 1390,
      "gram": 1391,
      "possi": 1392,
      "functions": 1393,
      "_metri": 1394,
      "ither": 1395,
      "rames": 1396,
      "stat": 1397,
      "based": 1398,
      "infer": 1399,
      "encode": 1400,
      "'))": 1401,
      "]))": 1402,
      "a_": 1403,
      "thing": 1404,
      "end_": 1405,
      "ending": 1406,
      "ops": 1407,
      "mi": 1408,
      "differ": 1409,
      "datasource": 1410,
      "_scope": 1411,
      "missing": 1412,
      "ash": 1413,
      "ced": 1414,
      "ved": 1415,
      "tensors": 1416,
      "ID": 1417,
      "ule": 1418,
      "_rate": 1419,
      "between": 1420,
      "wrap": 1421,
      "true": 1422,
      "ish": 1423,
      "pace": 1424,
      "Convert": 1425,
      "Ra": 1426,
      "_hparams": 1427,
      "sin": 1428,
      "sim": 1429,
      "vided": 1430,
      "util": 1431,
      "Wh": 1432,
      "ci": 1433,
      "sequences": 1434,
      "'):": 1435,
      "const": 1436,
      "cket": 1437,
      "very": 1438,
      "AP": 1439,
      "pu": 1440,
      "pri": 1441,
      "rdd": 1442,
      "num_heads": 1443,
      "link": 1444,
      "ry": 1445,
      "Raise": 1446,
      "glob": 1447,
      "kes": 1448,
      "task": 1449,
      "ignore": 1450,
      "En": 1451,
      "_pad": 1452,
      "termin": 1453,
      "eval_": 1454,
      "proper": 1455,
      "produ": 1456,
      "after": 1457,
      "Python": 1458,
      "ject": 1459,
      "seed": 1460,
      "elds": 1461,
      "Number": 1462,
      "also": 1463,
      "ded_": 1464,
      "]:": 1465,
      "want": 1466,
      "})": 1467,
      "cated": 1468,
      "template": 1469,
      "Dict": 1470,
      "pat": 1471,
      "oft": 1472,
      "losses": 1473,
      "ual": 1474,
      "cause": 1475,
      "graph": 1476,
      "LA": 1477,
      "ments": 1478,
      "replace": 1479,
      "field": 1480,
      "instead": 1481,
      "mon": 1482,
      "zed": 1483,
      "provided": 1484,
      "condi": 1485,
      "Raises": 1486,
      "=(": 1487,
      "_attention": 1488,
      "ffer": 1489,
      "old_": 1490,
      "000": 1491,
      "It": 1492,
      "lr": 1493,
      "ndim": 1494,
      "vis": 1495,
      "_prob": 1496,
      "'),": 1497,
      "contains": 1498,
      "dum": 1499,
      "ho": 1500,
      "art": 1501,
      "coer": 1502,
      "all_": 1503,
      "command": 1504,
      "matrix": 1505,
      "Def": 1506,
      "std": 1507,
      "24": 1508,
      "sentence": 1509,
      "exec": 1510,
      "interp": 1511,
      "multiple": 1512,
      "mx": 1513,
      "recor": 1514,
      "them": 1515,
      "polic": 1516,
      "versionadded": 1517,
      "decoder_": 1518,
      "device": 1519,
      "next_": 1520,
      "activ": 1521,
      "Datetime": 1522,
      "11": 1523,
      "-----": 1524,
      "expand": 1525,
      "curren": 1526,
      ".,": 1527,
      "problem": 1528,
      "make_": 1529,
      "Comput": 1530,
      "16": 1531,
      "filters": 1532,
      "tit": 1533,
      "_or": 1534,
      "here": 1535,
      "null": 1536,
      "yper": 1537,
      "deca": 1538,
      "batch_": 1539,
      "_position": 1540,
      "Column": 1541,
      "follow": 1542,
      "Sh": 1543,
      "search": 1544,
      "ank": 1545,
      "hist": 1546,
      "init": 1547,
      "show": 1548,
      "variables": 1549,
      ".\"": 1550,
      "20": 1551,
      "either": 1552,
      "_float": 1553,
      "different": 1554,
      "DO": 1555,
      "anti": 1556,
      "less": 1557,
      "some": 1558,
      "iterator": 1559,
      "relative": 1560,
      "arrays": 1561,
      "output_": 1562,
      "callable": 1563,
      "total_": 1564,
      "_params": 1565,
      "java": 1566,
      "ns": 1567,
      "enum": 1568,
      "main": 1569,
      "Categorical": 1570,
      "io": 1571,
      "edge": 1572,
      "means": 1573,
      "verse": 1574,
      "pose": 1575,
      "ality": 1576,
      "session": 1577,
      "https": 1578,
      "ND": 1579,
      "states": 1580,
      "correct": 1581,
      "disc": 1582,
      "include": 1583,
      "nam": 1584,
      "ros": 1585,
      "SQ": 1586,
      "]),": 1587,
      "next": 1588,
      "ose": 1589,
      "ream": 1590,
      "Default": 1591,
      "Spark": 1592,
      "ity": 1593,
      "road": 1594,
      "Dataset": 1595,
      "partition": 1596,
      "cli": 1597,
      "note": 1598,
      "errors": 1599,
      "store": 1600,
      "options": 1601,
      "Co": 1602,
      "span": 1603,
      "astype": 1604,
      "\"):": 1605,
      "roadcast": 1606,
      "gen": 1607,
      "position": 1608,
      "metrics": 1609,
      "variable_scope": 1610,
      "symbol": 1611,
      "To": 1612,
      "dt": 1613,
      "cent": 1614,
      "Context": 1615,
      "equal": 1616,
      "ution": 1617,
      "request": 1618,
      "vals": 1619,
      "spli": 1620,
      "convert_": 1621,
      "At": 1622,
      "ain": 1623,
      "pop": 1624,
      "erate": 1625,
      "while": 1626,
      "bins": 1627,
      "initial": 1628,
      "Fun": 1629,
      "_string": 1630,
      "pack": 1631,
      "shape_list": 1632,
      "Note": 1633,
      "most": 1634,
      "ild": 1635,
      "ready": 1636,
      "scope": 1637,
      "_loss": 1638,
      "lon": 1639,
      "hyper": 1640,
      "warning": 1641,
      "generator": 1642,
      "String": 1643,
      "required": 1644,
      "SE": 1645,
      "vent": 1646,
      "Parti": 1647,
      "supported": 1648,
      "essage": 1649,
      "Che": 1650,
      "cap": 1651,
      "ute": 1652,
      "alias": 1653,
      "they": 1654,
      "scale": 1655,
      "pair": 1656,
      "bottom": 1657,
      "_relative": 1658,
      "enumerate": 1659,
      "SQL": 1660,
      "gin": 1661,
      "ron": 1662,
      "shif": 1663,
      "prefix": 1664,
      "optimizer": 1665,
      "handle": 1666,
      "19": 1667,
      "bl": 1668,
      "ful": 1669,
      "lang": 1670,
      "loss_": 1671,
      "contin": 1672,
      "was": 1673,
      "ord": 1674,
      "getattr": 1675,
      "agent": 1676,
      "exclu": 1677,
      "view": 1678,
      "groups": 1679,
      "[:,": 1680,
      "full": 1681,
      "annot": 1682,
      "box": 1683,
      "weights_": 1684,
      "PU": 1685,
      "forward": 1686,
      "strip": 1687,
      "otherwise": 1688,
      "mapping": 1689,
      "Gener": 1690,
      "Po": 1691,
      "python": 1692,
      "posi": 1693,
      "agg": 1694,
      "find": 1695,
      "decay": 1696,
      "Path": 1697,
      "ef": 1698,
      "ustom": 1699,
      "words": 1700,
      "_1": 1701,
      "_embedding": 1702,
      "{\"": 1703,
      "lex": 1704,
      "rol": 1705,
      "wards": 1706,
      "fl": 1707,
      "share": 1708,
      "filter": 1709,
      "(['": 1710,
      "dist": 1711,
      "numb": 1712,
      "RO": 1713,
      "mtf": 1714,
      "transpose": 1715,
      "alization": 1716,
      "coerce": 1717,
      "_like": 1718,
      "ampl": 1719,
      "hash": 1720,
      "predictions": 1721,
      "Check": 1722,
      "pp": 1723,
      ")[": 1724,
      "every": 1725,
      "compati": 1726,
      "entity": 1727,
      "decoder": 1728,
      "exists": 1729,
      "30": 1730,
      "defined": 1731,
      "(*": 1732,
      "ake": 1733,
      "dec": 1734,
      "models": 1735,
      "disable": 1736,
      "possible": 1737,
      "already": 1738,
      "html": 1739,
      "train_": 1740,
      "because": 1741,
      "spa": 1742,
      "subset": 1743,
      "left_": 1744,
      "_2": 1745,
      "these": 1746,
      "consi": 1747,
      "option": 1748,
      "verage": 1749,
      "s_to_": 1750,
      "dev": 1751,
      "found": 1752,
      "grad": 1753,
      "evaluation": 1754,
      "appro": 1755,
      "datetime64": 1756,
      "extract": 1757,
      "kv": 1758,
      "tes": 1759,
      "dir": 1760,
      "ector": 1761,
      "pyspark": 1762,
      "counts": 1763,
      "_idx": 1764,
      "numeric": 1765,
      "ffix": 1766,
      "learn": 1767,
      "corresponding": 1768,
      "When": 1769,
      "E_": 1770,
      "Sparse": 1771,
      "_scal": 1772,
      "m_": 1773,
      "ulary": 1774,
      "expect": 1775,
      "Imp": 1776,
      "don": 1777,
      "ps": 1778,
      "ves": 1779,
      "api": 1780,
      "dot": 1781,
      "lower": 1782,
      "float32": 1783,
      "query_": 1784,
      "charact": 1785,
      "beam_size": 1786,
      "Sp": 1787,
      "yle": 1788,
      "addi": 1789,
      "ansform": 1790,
      "tuples": 1791,
      "auto": 1792,
      "ML": 1793,
      "seri": 1794,
      "dices": 1795,
      "compres": 1796,
      "float64": 1797,
      "Ad": 1798,
      "yi": 1799,
      "video": 1800,
      "Use": 1801,
      "larg": 1802,
      "org": 1803,
      "second": 1804,
      "examples": 1805,
      "====": 1806,
      "alized": 1807,
      "Boo": 1808,
      "ive": 1809,
      "year": 1810,
      "database": 1811,
      "<=": 1812,
      "dtypes": 1813,
      "ensure": 1814,
      "shap": 1815,
      "0000": 1816,
      "aries": 1817,
      "Stre": 1818,
      "_key": 1819,
      "gre": 1820,
      "pl": 1821,
      "sm": 1822,
      "Params": 1823,
      "create_": 1824,
      "ordered": 1825,
      "periods": 1826,
      "Stream": 1827,
      "Id": 1828,
      "gh": 1829,
      "depre": 1830,
      "and_": 1831,
      "construct": 1832,
      "specify": 1833,
      "indicat": 1834,
      "ances": 1835,
      "abs": 1836,
      "invalid": 1837,
      "see": 1838,
      "sep": 1839,
      "stream": 1840,
      "formation": 1841,
      "integ": 1842,
      "relu": 1843,
      "File": 1844,
      "merge": 1845,
      "_log": 1846,
      "unicode": 1847,
      "extension": 1848,
      "DF": 1849,
      "SON": 1850,
      "viron": 1851,
      "bar": 1852,
      "_start": 1853,
      "maybe": 1854,
      "_padding": 1855,
      "JSON": 1856,
      "dates": 1857,
      "both": 1858,
      "docs": 1859,
      "ward_": 1860,
      "ook": 1861,
      "estim": 1862,
      "Load": 1863,
      "activation": 1864,
      "AT": 1865,
      "int32": 1866,
      "implement": 1867,
      "AB": 1868,
      "Pre": 1869,
      "experts": 1870,
      "Partitions": 1871,
      "Add": 1872,
      "pare": 1873,
      "combin": 1874,
      "maximum": 1875,
      "img": 1876,
      "response": 1877,
      "display": 1878,
      "bit": 1879,
      "sparse": 1880,
      "inf": 1881,
      "ren": 1882,
      "lines": 1883,
      "close": 1884,
      "current_": 1885,
      "series": 1886,
      "score": 1887,
      "shapes": 1888,
      "_t": 1889,
      "timestamp": 1890,
      "_summary": 1891,
      "oftmax": 1892,
      "DatetimeIndex": 1893,
      "gine": 1894,
      "dash": 1895,
      "assign": 1896,
      "ell": 1897,
      "ely": 1898,
      "process_": 1899,
      "_score": 1900,
      "points": 1901,
      ":]": 1902,
      "UR": 1903,
      "ctions": 1904,
      "pattern": 1905,
      "force": 1906,
      "indexes": 1907,
      "_fe": 1908,
      "regex": 1909,
      "App": 1910,
      "Iter": 1911,
      "_types": 1912,
      "cum": 1913,
      "gment": 1914,
      "message": 1915,
      "atrix": 1916,
      "frequ": 1917,
      "observations": 1918,
      "_model": 1919,
      "dup": 1920,
      "rate": 1921,
      "Optional": 1922,
      "since": 1923,
      "02": 1924,
      "On": 1925,
      "PO": 1926,
      "db": 1927,
      "locs": 1928,
      "river": 1929,
      "header": 1930,
      "avai": 1931,
      "total": 1932,
      "API": 1933,
      ">=": 1934,
      "_array": 1935,
      "fname": 1936,
      "perform": 1937,
      "zeros": 1938,
      "attributes": 1939,
      "meta": 1940,
      "ross": 1941,
      "_len": 1942,
      "along": 1943,
      "assum": 1944,
      "vocabulary": 1945,
      "Notes": 1946,
      "AME": 1947,
      "mix": 1948,
      "99": 1949,
      "fla": 1950,
      "ies": 1951,
      "information": 1952,
      "csv": 1953,
      "scores": 1954,
      "go": 1955,
      "sive": 1956,
      "fields": 1957,
      "uses": 1958,
      "continue": 1959,
      "(-": 1960,
      "CH": 1961,
      "eze": 1962,
      "flow": 1963,
      "ision": 1964,
      "_samples": 1965,
      "initializer": 1966,
      "As": 1967,
      "_with": 1968,
      "look": 1969,
      "distri": 1970,
      "collection": 1971,
      "converted": 1972,
      "expert_": 1973,
      "=-": 1974,
      "shar": 1975,
      "probabili": 1976,
      "gradient": 1977,
      "][": 1978,
      "environ": 1979,
      "stor": 1980,
      "asc": 1981,
      "fici": 1982,
      "ather": 1983,
      "defaults": 1984,
      "curr": 1985,
      "title": 1986,
      "-+": 1987,
      "05": 1988,
      "Or": 1989,
      "\\\\": 1990,
      "uple": 1991,
      "setting": 1992,
      "observation": 1993,
      "st_": 1994,
      "style": 1995,
      "tpu": 1996,
      "eck": 1997,
      "compression": 1998,
      "tmp_dir": 1999,
      "kind": 2000,
      "nl": 2001,
      "called": 2002,
      "hasattr": 2003,
      "tags": 2004,
      "_states": 2005,
      "validation": 2006,
      "Form": 2007,
      "NA": 2008,
      "Per": 2009,
      "tlen": 2010,
      "context": 2011,
      "moe_": 2012,
      "convol": 2013,
      "representing": 2014,
      "discret": 2015,
      "tleneck": 2016,
      "S_": 2017,
      "_from_": 2018,
      "ak": 2019,
      "value_": 2020,
      "final": 2021,
      "operation": 2022,
      "high": 2023,
      "uff": 2024,
      "thresh": 2025,
      "root": 2026,
      "ument": 2027,
      "silon": 2028,
      "adata": 2029,
      "sets": 2030,
      "answ": 2031,
      "concaten": 2032,
      "remove": 2033,
      "parallel": 2034,
      "04": 2035,
      "LI": 2036,
      "begin": 2037,
      "such": 2038,
      "expr": 2039,
      "utils": 2040,
      "GB": 2041,
      "2018": 2042,
      "representation": 2043,
      "optimiz": 2044,
      "2d": 2045,
      "Tuple": 2046,
      "many": 2047,
      "oth": 2048,
      "samples": 2049,
      "dele": 2050,
      "epsilon": 2051,
      "_format": 2052,
      "cu": 2053,
      "ler": 2054,
      "rou": 2055,
      "_ids": 2056,
      "intern": 2057,
      "ules": 2058,
      "previ": 2059,
      "cannot": 2060,
      "TODO": 2061,
      "_metric": 2062,
      "DE": 2063,
      "Ima": 2064,
      "long": 2065,
      "sampl": 2066,
      "alph": 2067,
      "groupby": 2068,
      "layer_pre": 2069,
      "linear": 2070,
      "bottleneck": 2071,
      "1e": 2072,
      "fast": 2073,
      "sque": 2074,
      "core": 2075,
      ")),": 2076,
      "suffix": 2077,
      "depend": 2078,
      "global": 2079,
      "condition": 2080,
      "dy": 2081,
      "riter": 2082,
      "ones": 2083,
      "ends": 2084,
      "days": 2085,
      "chedule": 2086,
      "=['": 2087,
      "Vector": 2088,
      "gate": 2089,
      "lass": 2090,
      "their": 2091,
      "child": 2092,
      "eriod": 2093,
      "ascending": 2094,
      "').": 2095,
      "_q": 2096,
      "_un": 2097,
      "none": 2098,
      "imal": 2099,
      "sequence_length": 2100,
      "memory_": 2101,
      "exception": 2102,
      "transformer_": 2103,
      "Booster": 2104,
      "gu": 2105,
      "zone": 2106,
      "ign": 2107,
      "board": 2108,
      "_indices": 2109,
      "generate": 2110,
      "1d": 2111,
      "Java": 2112,
      "bor": 2113,
      "man": 2114,
      "rtype": 2115,
      "ree": 2116,
      "verbo": 2117,
      "tri": 2118,
      "index_": 2119,
      "neg": 2120,
      "_rep": 2121,
      "masked": 2122,
      "stride": 2123,
      "Compute": 2124,
      "All": 2125,
      "bine": 2126,
      "oid": 2127,
      "zes": 2128,
      "acy": 2129,
      "vectors": 2130,
      "Timestamp": 2131,
      ".\")": 2132,
      "done": 2133,
      "sw": 2134,
      "ages": 2135,
      "Cal": 2136,
      "Me": 2137,
      "NO": 2138,
      "T_": 2139,
      "rank": 2140,
      "part": 2141,
      "noise": 2142,
      "been": 2143,
      "being": 2144,
      "quanti": 2145,
      "compon": 2146,
      "following": 2147,
      "factor": 2148,
      "ante": 2149,
      "Transform": 2150,
      "ways": 2151,
      "ished": 2152,
      "clip": 2153,
      "ordin": 2154,
      "03": 2155,
      "q_": 2156,
      "your": 2157,
      "uture": 2158,
      "dered": 2159,
      "padded_": 2160,
      "_end": 2161,
      "cy": 2162,
      "engine": 2163,
      "ism": 2164,
      "lize": 2165,
      "tail": 2166,
      "keyword": 2167,
      "ources": 2168,
      "strides": 2169,
      "dimensions": 2170,
      "squeeze": 2171,
      "lied": 2172,
      "sort_": 2173,
      "validate": 2174,
      "pipe": 2175,
      "split_": 2176,
      "verbose": 2177,
      "_to": 2178,
      "__name": 2179,
      "under": 2180,
      "necess": 2181,
      "_init": 2182,
      "attribute": 2183,
      "yield": 2184,
      "event": 2185,
      "nb": 2186,
      "reset": 2187,
      "pear": 2188,
      "batches": 2189,
      "warm": 2190,
      "early": 2191,
      "constant": 2192,
      "hyperparameters": 2193,
      "cision": 2194,
      "valid_": 2195,
      "pick": 2196,
      "Wi": 2197,
      "Writ": 2198,
      "[[": 2199,
      "average": 2200,
      "ving": 2201,
      "_buffer": 2202,
      "parallelize": 2203,
      "flatten": 2204,
      "ABC": 2205,
      "__name__": 2206,
      "Other": 2207,
      "without": 2208,
      "input_": 2209,
      "instances": 2210,
      "licit": 2211,
      "x_shape": 2212,
      "class_": 2213,
      "kernel_size": 2214,
      "HT": 2215,
      "_function": 2216,
      "cation": 2217,
      "custom": 2218,
      "data_dir": 2219,
      "compute": 2220,
      "learning_r": 2221,
      "simp": 2222,
      "entry": 2223,
      "tran": 2224,
      "cates": 2225,
      "attention_bias": 2226,
      "operator": 2227,
      "skipna": 2228,
      "'},": 2229,
      "_width": 2230,
      "know": 2231,
      "ound": 2232,
      "least": 2233,
      "ropy": 2234,
      "cho": 2235,
      "calcul": 2236,
      "logger": 2237,
      "starts": 2238,
      "existing": 2239,
      "aggreg": 2240,
      "estimator": 2241,
      "Image": 2242,
      "EN": 2243,
      "lint": 2244,
      "round": 2245,
      "pylint": 2246,
      "target_": 2247,
      "interpol": 2248,
      "NDArray": 2249,
      "deprecated": 2250,
      "negative": 2251,
      "Block": 2252,
      "EL": 2253,
      "cate": 2254,
      "atures": 2255,
      "for_": 2256,
      "shuff": 2257,
      "foo": 2258,
      "AN": 2259,
      "GS": 2260,
      "alg": 2261,
      "self_attention": 2262,
      "bound": 2263,
      "feed": 2264,
      "latents": 2265,
      "nlp": 2266,
      "gates": 2267,
      "my": 2268,
      "ud": 2269,
      "parser": 2270,
      "_produ": 2271,
      "auth": 2272,
      "embeddings": 2273,
      "Any": 2274,
      "50": 2275,
      "bre": 2276,
      "gpu": 2277,
      "loop": 2278,
      "_sq": 2279,
      "active": 2280,
      "createDataFrame": 2281,
      "dispatch": 2282,
      "available": 2283,
      "TI": 2284,
      "stand": 2285,
      "image_": 2286,
      "block_length": 2287,
      "quival": 2288,
      "policy": 2289,
      "UT": 2290,
      "deep": 2291,
      "warn": 2292,
      "sentences": 2293,
      "effici": 2294,
      "opt": 2295,
      "property": 2296,
      "warmup": 2297,
      "quivalent": 2298,
      "Train": 2299,
      "cally": 2300,
      "trun": 2301,
      "tokeni": 2302,
      "_range": 2303,
      "transformer": 2304,
      "Batch": 2305,
      "_check": 2306,
      "frames": 2307,
      "gb": 2308,
      "uage": 2309,
      "reverse": 2310,
      "---+": 2311,
      "col1": 2312,
      "128": 2313,
      "discrete": 2314,
      "Period": 2315,
      "vm": 2316,
      "x1": 2317,
      "could": 2318,
      "unds": 2319,
      "entropy": 2320,
      "grad_": 2321,
      "location": 2322,
      "exclude": 2323,
      "distribu": 2324,
      "09": 2325,
      "23": 2326,
      "TY": 2327,
      "]):": 2328,
      "repe": 2329,
      "uring": 2330,
      "reser": 2331,
      "summ": 2332,
      "generated": 2333,
      "descrip": 2334,
      "PE": 2335,
      "hp": 2336,
      "text_": 2337,
      "reference": 2338,
      "those": 2339,
      "_spec": 2340,
      "CS": 2341,
      "_axis": 2342,
      "broadcast": 2343,
      "always": 2344,
      "debu": 2345,
      "question": 2346,
      "indicating": 2347,
      "[(": 2348,
      "hel": 2349,
      "sizes": 2350,
      "_multi": 2351,
      "INT": 2352,
      "month": 2353,
      "space": 2354,
      "\"])": 2355,
      ")->": 2356,
      "15": 2357,
      "Ch": 2358,
      "Qu": 2359,
      "refer": 2360,
      "within": 2361,
      "nest": 2362,
      "Input": 2363,
      "_scores": 2364,
      "####": 2365,
      "alpha": 2366,
      "\"),": 2367,
      "CO": 2368,
      "LO": 2369,
      "image_summary": 2370,
      "document": 2371,
      "learning_rate": 2372,
      "plotlib": 2373,
      "necessary": 2374,
      "_l": 2375,
      "_out": 2376,
      "bs": 2377,
      "cut": 2378,
      "reuse": 2379,
      "align": 2380,
      "Info": 2381,
      "resulting": 2382,
      "filepath": 2383,
      "_fl": 2384,
      "min_": 2385,
      "ager": 2386,
      "mark": 2387,
      "rough": 2388,
      "bi": 2389,
      "fra": 2390,
      "conne": 2391,
      "``(": 2392,
      "timezone": 2393,
      "pool": 2394,
      "bucket": 2395,
      "Timedelta": 2396,
      "logical_id": 2397,
      "Only": 2398,
      "Alice": 2399,
      "]])": 2400,
      "_i": 2401,
      "_w": 2402,
      "retrain": 2403,
      "ress": 2404,
      "timeout": 2405,
      "_match": 2406,
      "targets_": 2407,
      "attrs": 2408,
      "normalize": 2409,
      "decoding": 2410,
      "SparkContext": 2411,
      "shift": 2412,
      "\").": 2413,
      "FLA": 2414,
      "ged": 2415,
      "vers": 2416,
      "resi": 2417,
      "iform": 2418,
      "ints": 2419,
      "clust": 2420,
      "bytes": 2421,
      "compat": 2422,
      "kwds": 2423,
      "binary": 2424,
      "stored": 2425,
      "FLAGS": 2426,
      "_args": 2427,
      "_channels": 2428,
      "bas": 2429,
      "rary": 2430,
      "parsing": 2431,
      "col2": 2432,
      "worl": 2433,
      "dropna": 2434,
      "expert": 2435,
      "callbacks": 2436,
      "\"%": 2437,
      "13": 2438,
      "combine": 2439,
      "spans": 2440,
      "gradients": 2441,
      "numbers": 2442,
      "({'": 2443,
      "D_": 2444,
      "Spec": 2445,
      "quare": 2446,
      "area_": 2447,
      "minimum": 2448,
      "expected": 2449,
      "shuffle": 2450,
      "frequency": 2451,
      "aded": 2452,
      "rection": 2453,
      "through": 2454,
      "coordin": 2455,
      "_space": 2456,
      "post": 2457,
      "_fin": 2458,
      "timescal": 2459,
      "extend": 2460,
      "expand_dims": 2461,
      "learning_rate_": 2462,
      "\"))": 2463,
      "Make": 2464,
      "eded": 2465,
      "usage": 2466,
      "sqr": 2467,
      "2016": 2468,
      "simil": 2469,
      "previous": 2470,
      "+---+": 2471,
      "GH": 2472,
      "]],": 2473,
      "ctest": 2474,
      "doctest": 2475,
      "precision": 2476,
      "beta": 2477,
      "devices": 2478,
      "additional": 2479,
      "optimizer_": 2480,
      "component": 2481,
      "avi": 2482,
      "driver": 2483,
      "ort_": 2484,
      "iterable": 2485,
      "created": 2486,
      "overri": 2487,
      "Function": 2488,
      "compatible": 2489,
      "\"],": 2490,
      "Each": 2491,
      "_str": 2492,
      "mul": 2493,
      "ture": 2494,
      "would": 2495,
      "move": 2496,
      "_per_": 2497,
      "max_length": 2498,
      "ility": 2499,
      "_pos": 2500,
      "takes": 2501,
      "arity": 2502,
      "new_values": 2503,
      "_context": 2504,
      "ript": 2505,
      "timedelta64": 2506,
      "threshold": 2507,
      "_op": 2508,
      "_layers": 2509,
      "afe": 2510,
      "i8": 2511,
      "pt": 2512,
      "sg": 2513,
      "sti": 2514,
      "edi": 2515,
      "accep": 2516,
      "vely": 2517,
      "actual": 2518,
      "last_": 2519,
      "_construct": 2520,
      "face": 2521,
      "Split": 2522,
      "integers": 2523,
      ")],": 2524,
      "_map": 2525,
      "ial": 2526,
      "sli": 2527,
      "sav": 2528,
      "area": 2529,
      "term": 2530,
      "Struct": 2531,
      "ective": 2532,
      "ighbor": 2533,
      "product": 2534,
      "history": 2535,
      "dupli": 2536,
      "Norm": 2537,
      "flat": 2538,
      "rin": 2539,
      "ries": 2540,
      "Exten": 2541,
      "c_int": 2542,
      "reduce_sum": 2543,
      "Matrix": 2544,
      "Run": 2545,
      "_mean": 2546,
      "sl": 2547,
      "ually": 2548,
      "ws": 2549,
      "atio": 2550,
      "beh": 2551,
      "`.\"": 2552,
      "booster": 2553,
      "Field": 2554,
      "named": 2555,
      "Random": 2556,
      "brain": 2557,
      "objective": 2558,
      "first_": 2559,
      "topk": 2560,
      "super": 2561,
      "allow_": 2562,
      "best_": 2563,
      "Fe": 2564,
      "Sort": 2565,
      "rewards": 2566,
      "determin": 2567,
      "typ": 2568,
      "layout": 2569,
      "')]": 2570,
      "ategory": 2571,
      "Valid": 2572,
      "ified": 2573,
      "buf": 2574,
      "modality": 2575,
      "STM": 2576,
      "pairs": 2577,
      "implementation": 2578,
      "2000": 2579,
      "SI": 2580,
      "Sub": 2581,
      "VAL": 2582,
      "_as": 2583,
      "ins": 2584,
      "inser": 2585,
      "secon": 2586,
      "lease": 2587,
      "provide": 2588,
      "across": 2589,
      "validate_": 2590,
      "ART": 2591,
      "stats": 2592,
      "Shape": 2593,
      "character": 2594,
      "infer_": 2595,
      "48": 2596,
      "IO": 2597,
      "TR": 2598,
      "ng": 2599,
      "att": 2600,
      "ctx": 2601,
      "cases": 2602,
      "num_layers": 2603,
      "ories": 2604,
      "matplotlib": 2605,
      "policy_": 2606,
      "Implement": 2607,
      "_text": 2608,
      "cle": 2609,
      "gum": 2610,
      "ki": 2611,
      "rep": 2612,
      "lication": 2613,
      "control": 2614,
      "evaluate": 2615,
      "grammar": 2616,
      "Bu": 2617,
      "_batch": 2618,
      "rand": 2619,
      "once": 2620,
      "anel": 2621,
      "numPartitions": 2622,
      "upper": 2623,
      "about": 2624,
      "Read": 2625,
      "NaT": 2626,
      "signal": 2627,
      "status": 2628,
      "language": 2629,
      "Otherwise": 2630,
      "LSTM": 2631,
      "Text": 2632,
      "_get": 2633,
      "_kwargs": 2634,
      "category": 2635,
      "segment": 2636,
      "ular": 2637,
      "'''": 2638,
      "download": 2639,
      "_split": 2640,
      "break": 2641,
      "DStream": 2642,
      "TE": 2643,
      "_convert_": 2644,
      "erature": 2645,
      "rename": 2646,
      "neighbor": 2647,
      "doc_": 2648,
      "_initi": 2649,
      "ifier": 2650,
      "hidden_state": 2651,
      "_prefix": 2652,
      "common_attention": 2653,
      "metadata": 2654,
      "make_image_summary": 2655,
      "warnings": 2656,
      "internal": 2657,
      "Ver": 2658,
      "during": 2659,
      "ni": 2660,
      "inv": 2661,
      "utf": 2662,
      "_stop": 2663,
      "...,": 2664,
      "mapper": 2665,
      "matches": 2666,
      "archive": 2667,
      "_metrics": 2668,
      "terminal": 2669,
      "Extension": 2670,
      "future": 2671,
      "zation": 2672,
      "let": 2673,
      "log_": 2674,
      "methods": 2675,
      "importance": 2676,
      "save_": 2677,
      "GBM": 2678,
      ")``": 2679,
      "_filename": 2680,
      "_pred": 2681,
      "needed": 2682,
      "own": 2683,
      "book": 2684,
      "mission": 2685,
      "numeric_": 2686,
      "fail": 2687,
      "storage": 2688,
      "Lay": 2689,
      "adj": 2690,
      "entries": 2691,
      "preds": 2692,
      "Sequ": 2693,
      "allowed": 2694,
      "doesn": 2695,
      "behavi": 2696,
      "Gi": 2697,
      "esc": 2698,
      "contri": 2699,
      "Invalid": 2700,
      "is_list": 2701,
      "_indexer": 2702,
      "filter_size": 2703,
      "small": 2704,
      "probability": 2705,
      "environment": 2706,
      "standard": 2707,
      "({": 2708,
      "_num": 2709,
      "_conv": 2710,
      "sr": 2711,
      "thread": 2712,
      "enable": 2713,
      "an_": 2714,
      "eta": 2715,
      "change": 2716,
      "until": 2717,
      "body": 2718,
      "output_dir": 2719,
      "_ref": 2720,
      "right_": 2721,
      "processing": 2722,
      "cumul": 2723,
      "HTML": 2724,
      "choi": 2725,
      "75": 2726,
      "recur": 2727,
      "stati": 2728,
      "_by": 2729,
      "applied": 2730,
      "temperature": 2731,
      "Format": 2732,
      "repeat": 2733,
      "Lambda": 2734,
      "bility": 2735,
      "tm": 2736,
      "intrin": 2737,
      "heap": 2738,
      "_per": 2739,
      "lists": 2740,
      "_frame": 2741,
      "figsize": 2742,
      "diff": 2743,
      "efficient": 2744,
      "intrinsi": 2745,
      "_mode": 2746,
      "xim": 2747,
      "finished": 2748,
      "checkpoint": 2749,
      "selected": 2750,
      "works": 2751,
      "Creates": 2752,
      "execut": 2753,
      "records": 2754,
      "specifying": 2755,
      "debug": 2756,
      "Given": 2757,
      "Rep": 2758,
      "bel": 2759,
      "mu": 2760,
      "xel": 2761,
      "incre": 2762,
      "amma": 2763,
      "obs": 2764,
      "lengths": 2765,
      "ister": 2766,
      "formatted": 2767,
      "json_": 2768,
      "nodes": 2769,
      "epochs": 2770,
      "including": 2771,
      "Func": 2772,
      "distribution": 2773,
      "description": 2774,
      "'}": 2775,
      "Lab": 2776,
      "Mod": 2777,
      "l_": 2778,
      "writer": 2779,
      "num_blocks": 2780,
      "Int": 2781,
      "_frames": 2782,
      "complex": 2783,
      "removed": 2784,
      "KeyError": 2785,
      "sampling": 2786,
      "'{": 2787,
      "AC": 2788,
      "Can": 2789,
      "_count": 2790,
      "_locs": 2791,
      "lst": 2792,
      "ogram": 2793,
      "page": 2794,
      "slic": 2795,
      "reward": 2796,
      "logit": 2797,
      "perm": 2798,
      "conversion": 2799,
      "buil": 2800,
      "content": 2801,
      "_features": 2802,
      "IP": 2803,
      "fit": 2804,
      "arrow": 2805,
      "stem": 2806,
      "detail": 2807,
      "lace": 2808,
      "_slice": 2809,
      "Inst": 2810,
      "State": 2811,
      "anteced": 2812,
      "startswith": 2813,
      "18": 2814,
      "FI": 2815,
      "_x": 2816,
      "_result": 2817,
      "ases": 2818,
      "dest": 2819,
      "coder": 2820,
      "of_": 2821,
      "identi": 2822,
      "proto": 2823,
      "orith": 2824,
      "namespace": 2825,
      "encies": 2826,
      "computation": 2827,
      "operations": 2828,
      "Ac": 2829,
      "Doc": 2830,
      "War": 2831,
      "`[": 2832,
      "ard_": 2833,
      "loaded": 2834,
      "agend": 2835,
      "CHART": 2836,
      "antecedent": 2837,
      "Hel": 2838,
      "_number": 2839,
      "akes": 2840,
      "eff": 2841,
      "schedule": 2842,
      "square": 2843,
      "section": 2844,
      "another": 2845,
      "to_float": 2846,
      "uniform": 2847,
      "read_": 2848,
      "local_": 2849,
      "partitions": 2850,
      "Perform": 2851,
      ")])": 2852,
      "HParams": 2853,
      "gather": 2854,
      "parts": 2855,
      "direction": 2856,
      "inputs_": 2857,
      "_min": 2858,
      "attention_type": 2859,
      "avoid": 2860,
      "configuration": 2861,
      "dump": 2862,
      "record": 2863,
      "_product": 2864,
      "warmup_steps": 2865,
      "*=": 2866,
      "NN": 2867,
      "_action": 2868,
      "lation": 2869,
      "udf": 2870,
      "real": 2871,
      "rot": 2872,
      "ceback": 2873,
      "queries": 2874,
      "_sub": 2875,
      "label_": 2876,
      "_fre": 2877,
      "Config": 2878,
      "buffer": 2879,
      "union": 2880,
      "wrapper": 2881,
      "Meth": 2882,
      "early_stop": 2883,
      "With": 2884,
      "AX": 2885,
      "Au": 2886,
      "So": 2887,
      "TPU": 2888,
      "_class": 2889,
      "gamma": 2890,
      "ic_": 2891,
      "rule": 2892,
      "red_": 2893,
      "remain": 2894,
      "Initi": 2895,
      "viz": 2896,
      "_stack": 2897,
      "paths": 2898,
      "iterations": 2899,
      "calling": 2900,
      "[:-": 2901,
      "vars": 2902,
      "properties": 2903,
      "Transformer": 2904,
      "28": 2905,
      "_input": 2906,
      "_column": 2907,
      "pdf": 2908,
      "wa": 2909,
      "inner": 2910,
      "resize": 2911,
      "lier": 2912,
      "exact": 2913,
      "Inter": 2914,
      "length_q": 2915,
      "_factor": 2916,
      "structure": 2917,
      "cells": 2918,
      "_scalar": 2919,
      "residu": 2920,
      "sqrt": 2921,
      "early_stopping": 2922,
      "SK": 2923,
      "ptr": 2924,
      "three": 2925,
      "selection": 2926,
      "parsed": 2927,
      "fiel": 2928,
      "setup": 2929,
      "dimensional": 2930,
      "_jvm": 2931,
      "Computes": 2932,
      "'].": 2933,
      "Le": 2934,
      "Len": 2935,
      "_ro": 2936,
      "_is_": 2937,
      "_logits": 2938,
      "od_": 2939,
      "regi": 2940,
      "det": 2941,
      "leaf": 2942,
      "asarray": 2943,
      "sity": 2944,
      "adam": 2945,
      "ctionary": 2946,
      "quot": 2947,
      "useful": 2948,
      "_broadcast": 2949,
      "img_": 2950,
      "partial": 2951,
      "Apply": 2952,
      "field_": 2953,
      "La": 2954,
      "Map": 2955,
      "Slice": 2956,
      "hook": 2957,
      "ks": 2958,
      "err": 2959,
      "ery": 2960,
      "trained": 2961,
      "queue": 2962,
      "Construct": 2963,
      "Recor": 2964,
      "tz_": 2965,
      "ignored": 2966,
      "positions": 2967,
      "number_": 2968,
      "parallelism": 2969,
      "help": 2970,
      "17": 2971,
      "v2": 2972,
      "ater": 2973,
      "div": 2974,
      "adjust": 2975,
      "tract": 2976,
      "is_training": 2977,
      "backward": 2978,
      "difference": 2979,
      "network": 2980,
      "ON_": 2981,
      "histogram": 2982,
      "blk": 2983,
      "children": 2984,
      "interpolation": 2985,
      "algorith": 2986,
      "fraction": 2987,
      "Layer": 2988,
      "Label": 2989,
      "Sum": 2990,
      "pretrain": 2991,
      "xy": 2992,
      "inference": 2993,
      "_base": 2994,
      "experi": 2995,
      "----------------": 2996,
      "interval": 2997,
      "specific": 2998,
      "256": 2999,
      "encoded": 3000,
      "execute": 3001,
      "pipeline": 3002,
      "nested": 3003,
      "Warning": 3004,
      "14": 3005,
      "Class": 3006,
      "Table": 3007,
      "_output": 3008,
      "_layer": 3009,
      "equivalent": 3010,
      "gfile": 3011,
      "ion_": 3012,
      "preser": 3013,
      "}.": 3014,
      "ite": 3015,
      "time_": 3016,
      "Inte": 3017,
      "log_prob": 3018,
      "model_hparams": 3019,
      "_prediction": 3020,
      "_broadcast_dims": 3021,
      "Call": 3022,
      "Size": 3023,
      "ele": 3024,
      "ove": 3025,
      "tables": 3026,
      "above": 3027,
      "proc": 3028,
      "dims": 3029,
      "boost": 3030,
      "grid": 3031,
      "ER_": 3032,
      "1000": 3033,
      "encoder_output": 3034,
      "compatibility": 3035,
      "approxim": 3036,
      "LIB": 3037,
      "transition": 3038,
      "seconds": 3039,
      "_obj": 3040,
      "crop": 3041,
      "medi": 3042,
      "rhp": 3043,
      "ines": 3044,
      "cos": 3045,
      "_pi": 3046,
      "_by_": 3047,
      "orient": 3048,
      "acity": 3049,
      "cording": 3050,
      "eval_metric": 3051,
      "find_": 3052,
      "changed": 3053,
      "requires": 3054,
      "Keys": 3055,
      "maybe_": 3056,
      "convolution": 3057,
      "Float": 3058,
      "SAME": 3059,
      "You": 3060,
      "centi": 3061,
      "ds_": 3062,
      "dated": 3063,
      "mgr": 3064,
      "ner_": 3065,
      "pred_": 3066,
      "via": 3067,
      "df2": 3068,
      "directly": 3069,
      "Comp": 3070,
      "_relative_embedding": 3071,
      "flags": 3072,
      "known": 3073,
      "timescale": 3074,
      "Ax": 3075,
      "big": 3076,
      "reindex": 3077,
      "older": 3078,
      "neare": 3079,
      "num_experts": 3080,
      "pixel": 3081,
      "top_k": 3082,
      "NotImplement": 3083,
      "logical_": 3084,
      "cular": 3085,
      "Generate": 3086,
      "INTER": 3087,
      "Query": 3088,
      "NotImplemented": 3089,
      "80": 3090,
      "Dep": 3091,
      "OR": 3092,
      "x2": 3093,
      "ended": 3094,
      ")).": 3095,
      "locale": 3096,
      "allows": 3097,
      "nanops": 3098,
      "_get_axis": 3099,
      "appropri": 3100,
      "large": 3101,
      "========": 3102,
      "duplicates": 3103,
      "Method": 3104,
      "CON": 3105,
      "Pandas": 3106,
      "_call": 3107,
      "cpu": 3108,
      "even": 3109,
      "uid": 3110,
      "ym": 3111,
      "redu": 3112,
      "isna": 3113,
      "etch": 3114,
      "lot": 3115,
      "ulation": 3116,
      "access": 3117,
      "Example": 3118,
      "normal": 3119,
      "ffn_": 3120,
      "_post": 3121,
      "Resource": 3122,
      "descri": 3123,
      "self_attention_bias": 3124,
      "behavior": 3125,
      "60": 3126,
      ">`": 3127,
      "AU": 3128,
      "LGBM": 3129,
      "_tensor": 3130,
      "ition": 3131,
      "spe": 3132,
      "well": 3133,
      "etc": 3134,
      "conf": 3135,
      "proj": 3136,
      "compar": 3137,
      "get_shape": 3138,
      "question_": 3139,
      "workers": 3140,
      "annotation": 3141,
      "consist": 3142,
      "Cur": 3143,
      "Used": 3144,
      "_weight": 3145,
      "gold": 3146,
      "ier": 3147,
      "ately": 3148,
      "dio": 3149,
      "beled": 3150,
      "moid": 3151,
      "short": 3152,
      "upport": 3153,
      "updat": 3154,
      "prop": 3155,
      "_bits": 3156,
      "feature_name": 3157,
      "plots": 3158,
      "ING": 3159,
      "'\\": 3160,
      ":,": 3161,
      "GPU": 3162,
      "SP": 3163,
      "Seri": 3164,
      "blob": 3165,
      "might": 3166,
      "softmax": 3167,
      "tbl": 3168,
      "ense": 3169,
      "tool": 3170,
      "lap": 3171,
      "what": 3172,
      "assoc": 3173,
      "perties": 3174,
      "denti": 3175,
      "top_": 3176,
      "datetimelike": 3177,
      "trees": 3178,
      "associ": 3179,
      "200": 3180,
      "Clo": 3181,
      "ET": 3182,
      "dr": 3183,
      "pus": 3184,
      "issing": 3185,
      "lout": 3186,
      "intent": 3187,
      "default_": 3188,
      "]).": 3189,
      "raises": 3190,
      "according": 3191,
      "register": 3192,
      "dropout_broadcast_dims": 3193,
      "signature": 3194,
      "random_": 3195,
      "encoded_": 3196,
      "cycle": 3197,
      "pickle": 3198,
      "SKIP": 3199,
      "Length": 3200,
      "Api": 3201,
      "Dtype": 3202,
      "Sto": 3203,
      "_from": 3204,
      "nc": 3205,
      "van": 3206,
      "cover": 3207,
      "ify_": 3208,
      "returning": 3209,
      "try_": 3210,
      "appear": 3211,
      "fixed": 3212,
      "Collection": 3213,
      "reduce_mean": 3214,
      "_relative_position": 3215,
      "weights_fn": 3216,
      "StructType": 3217,
      "Integer": 3218,
      "Ob": 3219,
      "_labels": 3220,
      "_limit": 3221,
      "_tag": 3222,
      "ght": 3223,
      "anch": 3224,
      "maj": 3225,
      "argmax": 3226,
      "list_": 3227,
      "s_dim": 3228,
      "eps": 3229,
      "spacy": 3230,
      "subclass": 3231,
      "Mode": 3232,
      "modules": 3233,
      "closed": 3234,
      "_buf": 3235,
      "linking": 3236,
      "visu": 3237,
      "parent": 3238,
      "contrib": 3239,
      "intrinsic": 3240,
      "%(": 3241,
      ")}": 3242,
      "59": 3243,
      "Bob": 3244,
      "LU": 3245,
      "NAME": 3246,
      "Out": 3247,
      "One": 3248,
      "ix": 3249,
      "ible": 3250,
      "roll": 3251,
      "moo": 3252,
      "_sparse": 3253,
      "script": 3254,
      "decode_length": 3255,
      "system": 3256,
      "needs": 3257,
      "rollout": 3258,
      "shards": 3259,
      "answer": 3260,
      "Write": 3261,
      "world": 3262,
      "details": 3263,
      "NotImplementedError": 3264,
      "Cloud": 3265,
      "Dis": 3266,
      "Net": 3267,
      "_config": 3268,
      "ide": 3269,
      "nn_": 3270,
      "anager": 3271,
      "ingle": 3272,
      "pred": 3273,
      "na_rep": 3274,
      "particular": 3275,
      "simple": 3276,
      "TRA": 3277,
      "Replace": 3278,
      "66": 3279,
      "CT": 3280,
      "_P": 3281,
      "fm": 3282,
      "hot": 3283,
      "ppo": 3284,
      "copi": 3285,
      "chem": 3286,
      "quet": 3287,
      "prev": 3288,
      "num_hidden": 3289,
      "istic": 3290,
      "_lengths": 3291,
      "pay": 3292,
      "ternal": 3293,
      "coordinates": 3294,
      "appropriate": 3295,
      "tools": 3296,
      "Sy": 3297,
      "Tra": 3298,
      "Up": 3299,
      "_for": 3300,
      "_eval": 3301,
      "got": 3302,
      "gating": 3303,
      "math": 3304,
      "lies": 3305,
      "headers": 3306,
      "group_size": 3307,
      "processed": 3308,
      "ous_": 3309,
      "means_": 3310,
      "audio": 3311,
      "matmul": 3312,
      "locations": 3313,
      "original_": 3314,
      "NumPy": 3315,
      "resolve": 3316,
      "dttm": 3317,
      "splits": 3318,
      "query_shape": 3319,
      "_constructor": 3320,
      "nearest": 3321,
      "'``": 3322,
      "21": 3323,
      "3d": 3324,
      "inside": 3325,
      "ont": 3326,
      "updated": 3327,
      "opt_": 3328,
      "_spark": 3329,
      "key_depth": 3330,
      "percenti": 3331,
      "corr": 3332,
      "counter": 3333,
      "{}'.": 3334,
      "_polic": 3335,
      "Dictionary": 3336,
      "chunksize": 3337,
      "beginning": 3338,
      "insert": 3339,
      "Helper": 3340,
      "Cor": 3341,
      "Drop": 3342,
      "bly": 3343,
      "forward_": 3344,
      "wee": 3345,
      "track": 3346,
      "([\"": 3347,
      "agger": 3348,
      "later": 3349,
      "entities": 3350,
      "passing": 3351,
      "idxs": 3352,
      "Comm": 3353,
      "timeseries": 3354,
      "oken": 3355,
      "Atten": 3356,
      "POINTER": 3357,
      "TYPE": 3358,
      "Version": 3359,
      "ExtensionArray": 3360,
      "TRAIN": 3361,
      "512": 3362,
      "Brain": 3363,
      "Off": 3364,
      "ema": 3365,
      "iled": 3366,
      "}]": 3367,
      "andle": 3368,
      "int8": 3369,
      "verify_": 3370,
      "_pack": 3371,
      "tak": 3372,
      "comple": 3373,
      "compare": 3374,
      "licate": 3375,
      "sigmoid": 3376,
      "sorting": 3377,
      "Logi": 3378,
      "-----+": 3379,
      "Defaults": 3380,
      "agent_id": 3381,
      "Ordered": 3382,
      "save_weights_": 3383,
      "Sequence": 3384,
      "Store": 3385,
      "payload": 3386,
      "DI": 3387,
      "Find": 3388,
      "Sw": 3389,
      "Token": 3390,
      "Vari": 3391,
      "_n": 3392,
      "clean": 3393,
      "mes": 3394,
      "ole": 3395,
      "tar": 3396,
      "These": 3397,
      "']:": 3398,
      "compute_": 3399,
      "require": 3400,
      "capacity": 3401,
      "characters": 3402,
      "plt": 3403,
      "summaries": 3404,
      "saved": 3405,
      "VALID": 3406,
      "is_list_like": 3407,
      "Command": 3408,
      "Attention": 3409,
      "save_weights_to": 3410,
      "\"{": 3411,
      "1_": 3412,
      "Duration": 3413,
      "Ne": 3414,
      "Takes": 3415,
      "_fun": 3416,
      "ache": 3417,
      "stage": 3418,
      "parquet": 3419,
      "unch": 3420,
      "resources": 3421,
      "lying": 3422,
      "explicit": 3423,
      "common": 3424,
      "Module": 3425,
      "computed": 3426,
      "dot_product": 3427,
      ".')": 3428,
      "2_": 3429,
      "34": 3430,
      "Scal": 3431,
      "_codes": 3432,
      "_and_": 3433,
      "uous": 3434,
      "sed_": 3435,
      "loy": 3436,
      "raph": 3437,
      "nums": 3438,
      "used_": 3439,
      "prog": 3440,
      "timesteps": 3441,
      "Tensors": 3442,
      "has_": 3443,
      "datasets": 3444,
      "ential": 3445,
      "NaNs": 3446,
      "beams": 3447,
      "Gets": 3448,
      "expressions": 3449,
      "use_tpu": 3450,
      "predicted": 3451,
      "decimal": 3452,
      "major": 3453,
      "AG": 3454,
      "Fin": 3455,
      "Names": 3456,
      "Window": 3457,
      "_param": 3458,
      "aus": 3459,
      "cb": 3460,
      "gle": 3461,
      "gap": 3462,
      "qa": 3463,
      "rng": 3464,
      "}'": 3465,
      "ender": 3466,
      "max_relative_position": 3467,
      "_stat": 3468,
      "acces": 3469,
      "subplots": 3470,
      "pie": 3471,
      "{}\".": 3472,
      "transformed": 3473,
      "write_": 3474,
      "Node": 3475,
      "visible": 3476,
      "delete": 3477,
      "layer_prepost": 3478,
      "Calcul": 3479,
      "_initializer": 3480,
      "wait": 3481,
      "AD": 3482,
      "Max": 3483,
      "_M": 3484,
      "_parse": 3485,
      "_update": 3486,
      "_LIB": 3487,
      "ved_": 3488,
      "xt": 3489,
      "iso": 3490,
      "below": 3491,
      "tru": 3492,
      "whose": 3493,
      "ntre": 3494,
      "_relu": 3495,
      "Attr": 3496,
      "package": 3497,
      "serialization": 3498,
      "greater": 3499,
      "smalle": 3500,
      "probabilities": 3501,
      "BrainInfo": 3502,
      "Logical": 3503,
      "Dense": 3504,
      "FT": 3505,
      "Gro": 3506,
      "NS": 3507,
      "SAM": 3508,
      "Temp": 3509,
      "_max": 3510,
      "_grad": 3511,
      "vid": 3512,
      "lev": 3513,
      "----+": 3514,
      "unstack": 3515,
      "exc": 3516,
      "cond_": 3517,
      "_star": 3518,
      "to_datetime": 3519,
      "spati": 3520,
      "floating": 3521,
      "_right": 3522,
      "lated": 3523,
      "transforms": 3524,
      "matching": 3525,
      "library": 3526,
      "better": 3527,
      "supports": 3528,
      "Sets": 3529,
      "ability": 3530,
      "filter_width": 3531,
      "center": 3532,
      "Point": 3533,
      "Adds": 3534,
      "_flange": 3535,
      "cluster": 3536,
      "Object": 3537,
      "aussi": 3538,
      "Group": 3539,
      "Using": 3540,
      "rules": 3541,
      "tab": 3542,
      "attemp": 3543,
      "reward_": 3544,
      "value_depth": 3545,
      "alive": 3546,
      "accur": 3547,
      "acency": 3548,
      "([[": 3549,
      "masked_": 3550,
      "method_": 3551,
      "Conv": 3552,
      "written": 3553,
      "e_limit": 3554,
      "relation": 3555,
      "lambda_": 3556,
      "running": 3557,
      "Converts": 3558,
      "total_value_depth": 3559,
      "distance": 3560,
      "cuda": 3561,
      "references": 3562,
      "escape": 3563,
      "src": 3564,
      "Level": 3565,
      "algorithm": 3566,
      "moothing": 3567,
      "ntree_limit": 3568,
      "EX": 3569,
      "IL": 3570,
      "[{": 3571,
      "_func": 3572,
      "cf": 3573,
      "cer": 3574,
      "f1": 3575,
      "orary": 3576,
      "dilation": 3577,
      "identity": 3578,
      "()``": 3579,
      "profile": 3580,
      "gets": 3581,
      "_reward": 3582,
      "starting": 3583,
      "1024": 3584,
      "aux": 3585,
      "entire": 3586,
      "dropout_rate": 3587,
      "oogle": 3588,
      "sys": 3589,
      "currently": 3590,
      "RET": 3591,
      "255": 3592,
      "seq_len": 3593,
      "')).": 3594,
      "Encoder": 3595,
      "eval_set": 3596,
      "Generates": 3597,
      "flag": 3598,
      "_with_": 3599,
      "quantile": 3600,
      "residual": 3601,
      "_rounds": 3602,
      "08": 3603,
      "2f": 3604,
      "[],": 3605,
      "_active": 3606,
      "job": 3607,
      "klass": 3608,
      "s1": 3609,
      "ues": 3610,
      "itor": 3611,
      "stry": 3612,
      "sho": 3613,
      "timestep": 3614,
      "_matrix": 3615,
      "arith": 3616,
      "ground": 3617,
      "localize": 3618,
      "sql_": 3619,
      "possibly": 3620,
      "render": 3621,
      "URL": 3622,
      "collections": 3623,
      "override": 3624,
      "logical_form": 3625,
      ")=": 3626,
      "Cannot": 3627,
      "MI": 3628,
      "Wrap": 3629,
      "_time": 3630,
      "_method": 3631,
      "in_": 3632,
      "iny": 3633,
      "thub": 3634,
      "arange": 3635,
      "utter": 3636,
      "``'": 3637,
      "_pct": 3638,
      "_beta": 3639,
      "Parse": 3640,
      "Argum": 3641,
      "weight_": 3642,
      "github": 3643,
      "depth_v": 3644,
      "filled": 3645,
      "feature_names": 3646,
      "multiplier": 3647,
      "_dates": 3648,
      "_spli": 3649,
      "total_key_depth": 3650,
      "combination": 3651,
      "convolu": 3652,
      "associated": 3653,
      "RETUR": 3654,
      "Arguments": 3655,
      "Evalu": 3656,
      "How": 3657,
      "_co": 3658,
      "_token": 3659,
      "_image": 3660,
      "_make": 3661,
      "cing": 3662,
      "false": 3663,
      "t2": 3664,
      "sem": 3665,
      "dig": 3666,
      "ditional": 3667,
      "num_samples": 3668,
      "gether": 3669,
      "rie": 3670,
      "user_": 3671,
      "minator": 3672,
      "agents": 3673,
      "avg": 3674,
      "grads": 3675,
      "final_": 3676,
      "latents_": 3677,
      "_bucket": 3678,
      "holi": 3679,
      "_or_buf": 3680,
      "other_": 3681,
      "adjacency": 3682,
      "agenda": 3683,
      "num_hidden_layers": 3684,
      "Offset": 3685,
      "(**": 3686,
      "New": 3687,
      "Pi": 3688,
      "RNN": 3689,
      "UDF": 3690,
      "dl": 3691,
      "ling": 3692,
      "mid": 3693,
      "oun": 3694,
      "ote": 3695,
      "ter_": 3696,
      "xs": 3697,
      "together": 3698,
      "one_h": 3699,
      "abc": 3700,
      "riminator": 3701,
      "cats": 3702,
      "cursor": 3703,
      "ifies": 3704,
      "server": 3705,
      "timing": 3706,
      "layer_post": 3707,
      "Reg": 3708,
      "supp": 3709,
      "Log": 3710,
      "equals": 3711,
      "Import": 3712,
      "dependencies": 3713,
      "layer_prepostprocess_": 3714,
      "95": 3715,
      ">,": 3716,
      "Element": 3717,
      "HDF": 3718,
      "Let": 3719,
      "Pack": 3720,
      "Ses": 3721,
      "]`.": 3722,
      "_num_": 3723,
      "air": 3724,
      "ection": 3725,
      "gz": 3726,
      "lk": 3727,
      "son": 3728,
      "were": 3729,
      "asic": 3730,
      "_sc": 3731,
      "multihead": 3732,
      "max_len": 3733,
      "max_area_": 3734,
      "Select": 3735,
      "loads": 3736,
      "sym": 3737,
      "docstring": 3738,
      "positive": 3739,
      "ROW": 3740,
      "consider": 3741,
      "considered": 3742,
      "_scale": 3743,
      "layer_preprocess": 3744,
      "endswith": 3745,
      "underlying": 3746,
      "########": 3747,
      "stics": 3748,
      "Feature": 3749,
      "Modality": 3750,
      "elem": 3751,
      "aussian": 3752,
      "40": 3753,
      "Custom": 3754,
      "Ho": 3755,
      "Support": 3756,
      "_items": 3757,
      "_module": 3758,
      "md": 3759,
      "rint": 3760,
      "rent": 3761,
      "tile": 3762,
      "lip": 3763,
      "upcast": 3764,
      "()))": 3765,
      "versed": 3766,
      "','": 3767,
      "outer": 3768,
      "wever": 3769,
      "length_k": 3770,
      "path_or_buf": 3771,
      "texts": 3772,
      "padded": 3773,
      "special": 3774,
      "normaliz": 3775,
      "contained": 3776,
      "changes": 3777,
      "dify": 3778,
      "task_id": 3779,
      "requested": 3780,
      "compress_": 3781,
      "dashbo": 3782,
      "aggregate": 3783,
      "inspect": 3784,
      "Record": 3785,
      "speed": 3786,
      "RETURNS": 3787,
      "Session": 3788,
      "ModalityType": 3789,
      "27": 3790,
      "Cy": 3791,
      "SH": 3792,
      "TH": 3793,
      "Yi": 3794,
      "_set": 3795,
      "_object": 3796,
      "_create_": 3797,
      "bst": 3798,
      "ders": 3799,
      "fetch": 3800,
      "kl": 3801,
      "decre": 3802,
      "too": 3803,
      "toff": 3804,
      "moment": 3805,
      "form_data": 3806,
      "array_like": 3807,
      "column_name": 3808,
      "is_extension": 3809,
      "ification": 3810,
      "actually": 3811,
      "action_": 3812,
      "_to_java": 3813,
      "decode_h": 3814,
      "period": 3815,
      "_span": 3816,
      "global_": 3817,
      "_probs": 3818,
      "viz_type": 3819,
      "early_stopping_rounds": 3820,
      "Labeled": 3821,
      "_predictions": 3822,
      "Current": 3823,
      "300": 3824,
      "Be": 3825,
      "Dim": 3826,
      "_loss_": 3827,
      "aver": 3828,
      "fact": 3829,
      "hour": 3830,
      "ized": 3831,
      "safe": 3832,
      "wer": 3833,
      "xi": 3834,
      "}\"": 3835,
      "}\".": 3836,
      "inner_": 3837,
      "erver": 3838,
      "tick": 3839,
      "shell": 3840,
      "argin": 3841,
      "indexing": 3842,
      "rices": 3843,
      "application": 3844,
      "trainable": 3845,
      "_request": 3846,
      "Extract": 3847,
      "disk": 3848,
      "normalized": 3849,
      "generate_": 3850,
      "overlap": 3851,
      "filenames": 3852,
      "definition": 3853,
      "discriminator": 3854,
      "process_sequence": 3855,
      "mixed": 3856,
      "UTC": 3857,
      "basic": 3858,
      "allow_fill": 3859,
      "Output": 3860,
      "_spark_context": 3861,
      "loyment": 3862,
      "_active_spark_context": 3863,
      "33": 3864,
      "55": 3865,
      "Down": 3866,
      "_apply": 3867,
      "_for_": 3868,
      "gg": 3869,
      "n_samples": 3870,
      "around": 3871,
      "stit": 3872,
      "desi": 3873,
      "cel": 3874,
      "adding": 3875,
      "()[": 3876,
      "trig": 3877,
      "dog": 3878,
      "input_shape": 3879,
      "tach": 3880,
      "_mat": 3881,
      "_met": 3882,
      "_msg": 3883,
      "_missing": 3884,
      "oriz": 3885,
      "Values": 3886,
      "memory_flange": 3887,
      "transformation": 3888,
      "x_means_": 3889,
      "regular": 3890,
      "ird": 3891,
      "initializ": 3892,
      "decoded_": 3893,
      "strict": 3894,
      "ByKey": 3895,
      "abilities": 3896,
      "prior": 3897,
      "choice": 3898,
      "week": 3899,
      "layer_prepostprocess_dropout": 3900,
      "Dimension": 3901,
      "OO": 3902,
      "Of": 3903,
      "_label": 3904,
      "_set_": 3905,
      "_udf": 3906,
      "aw": 3907,
      "draw": 3908,
      "duration": 3909,
      "gain": 3910,
      "nv": 3911,
      "ratio": 3912,
      "ranch": 3913,
      "s2": 3914,
      "sz": 3915,
      "decor": 3916,
      "apache": 3917,
      "traject": 3918,
      "logs": 3919,
      "byte": 3920,
      "dence": 3921,
      "to_concat": 3922,
      "_read": 3923,
      "_rewards": 3924,
      "get_variable": 3925,
      "illa": 3926,
      "optionally": 3927,
      "variance": 3928,
      "depth_k": 3929,
      "_problem": 3930,
      "sorted_": 3931,
      "addition": 3932,
      "assumed": 3933,
      "concatenate": 3934,
      "similarity": 3935,
      ",)": 3936,
      "EO": 3937,
      "Long": 3938,
      "_col": 3939,
      "hav": 3940,
      "pull": 3941,
      "uble": 3942,
      "recent": 3943,
      "degre": 3944,
      "aniti": 3945,
      "lots": 3946,
      "six": 3947,
      "units": 3948,
      "unless": 3949,
      "ado": 3950,
      "project": 3951,
      "double": 3952,
      "heads_": 3953,
      "new_index": 3954,
      "nonpadding": 3955,
      "overwrite": 3956,
      "conditional": 3957,
      "constructor": 3958,
      "_sql": 3959,
      "Us": 3960,
      "]``": 3961,
      "gl": 3962,
      "non_": 3963,
      "wal": 3964,
      "alo": 3965,
      "sible": 3966,
      "modify": 3967,
      "dataframe": 3968,
      "model_name": 3969,
      "Paralle": 3970,
      "trainer": 3971,
      "is_datetime64": 3972,
      "is_datetimelike": 3973,
      "blems": 3974,
      "rectory": 3975,
      "stopping": 3976,
      "chunks": 3977,
      "next_frame": 3978,
      "shared_": 3979,
      "largest": 3980,
      "cutoff": 3981,
      "sampling_": 3982,
      "ABCSeries": 3983,
      "Summary": 3984,
      "ModeKeys": 3985,
      "\"}": 3986,
      "CE": 3987,
      "Must": 3988,
      "cla": 3989,
      "ccess": 3990,
      "rece": 3991,
      "arn": 3992,
      "tic": 3993,
      "cog": 3994,
      "type_": 3995,
      "_series": 3996,
      "eric": 3997,
      "vice": 3998,
      "_std": 3999,
      "add_argument": 4000,
      "max_num_": 4001,
      "nonzero": 4002,
      "selector": 4003,
      "print_": 4004,
      "vars_": 4005,
      "source_": 4006,
      "TO_": 4007,
      "Uni": 4008,
      "Union": 4009,
      "inferred": 4010,
      "datasource_id": 4011,
      "execution": 4012,
      "titem": 4013,
      "Code": 4014,
      "SparseArray": 4015,
      "lookup": 4016,
      "OrderedDict": 4017,
      "progress": 4018,
      "utterance": 4019,
      "adoop": 4020,
      "Parallel": 4021,
      ")(": 4022,
      ".)": 4023,
      "Over": 4024,
      "Render": 4025,
      "_var": 4026,
      "ie": 4027,
      "pol": 4028,
      "rl": 4029,
      "eter_": 4030,
      "didate": 4031,
      "shard": 4032,
      "verti": 4033,
      "([('": 4034,
      "__class_": 4035,
      "na_": 4036,
      "ordering": 4037,
      "parse_dates": 4038,
      ":`~": 4039,
      "_block_size": 4040,
      "chars": 4041,
      "Fill": 4042,
      "DateOffset": 4043,
      "production": 4044,
      "decoder_layers": 4045,
      "fully": 4046,
      "others": 4047,
      "tokenizer": 4048,
      "neighbors": 4049,
      "shortcut": 4050,
      "Update": 4051,
      "LogicalId": 4052,
      "__class__": 4053,
      "GR": 4054,
      "Los": 4055,
      "[%": 4056,
      "_add_": 4057,
      "_ops": 4058,
      "_grad_": 4059,
      "bra": 4060,
      "ram": 4061,
      "soft": 4062,
      "td": 4063,
      "real_": 4064,
      "arante": 4065,
      "alled": 4066,
      "itch": 4067,
      "_sample": 4068,
      "getter": 4069,
      "_blk": 4070,
      "byref": 4071,
      "alities": 4072,
      "aliases": 4073,
      "creti": 4074,
      "dataset_split": 4075,
      "boxes": 4076,
      "share_relative_embedding": 4077,
      "mixture": 4078,
      "Formation": 4079,
      "boundary": 4080,
      "PeriodIndex": 4081,
      "similar": 4082,
      "slc": 4083,
      "CloudFormation": 4084,
      "taken": 4085,
      "LabeledPoint": 4086,
      "desired": 4087,
      "heads_share_relative_embedding": 4088,
      "36": 4089,
      "Range": 4090,
      "Stor": 4091,
      "Y_": 4092,
      "_keys": 4093,
      "_cache": 4094,
      "_json": 4095,
      "nrows": 4096,
      "yy": 4097,
      "}}": 4098,
      "ated_": 4099,
      "repla": 4100,
      "unsqueeze": 4101,
      "itself": 4102,
      "dataType": 4103,
      "_softmax": 4104,
      "defaultdict": 4105,
      "perf": 4106,
      "grou": 4107,
      "grouper": 4108,
      "placement": 4109,
      "Ref": 4110,
      "specifies": 4111,
      "_filepath": 4112,
      "modalities": 4113,
      "encoder_decoder_": 4114,
      "=[[": 4115,
      "dumps": 4116,
      "stdout": 4117,
      "Asser": 4118,
      "settings": 4119,
      "_multip": 4120,
      "sgd": 4121,
      "comparis": 4122,
      "fmt": 4123,
      "BO": 4124,
      "Base": 4125,
      "IG": 4126,
      "Lear": 4127,
      "border": 4128,
      "jc": 4129,
      "order_": 4130,
      "come": 4131,
      "ravel": 4132,
      "gest": 4133,
      "input_dim": 4134,
      "tage": 4135,
      "num_iteration": 4136,
      "worker": 4137,
      "agon": 4138,
      "2015": 4139,
      "_feature": 4140,
      "higher": 4141,
      "feed_dict": 4142,
      "documentation": 4143,
      "connect": 4144,
      "connection": 4145,
      "namedtuple": 4146,
      "_refs": 4147,
      "Configuration": 4148,
      "mesh": 4149,
      "Calculate": 4150,
      "Basic": 4151,
      "DB": 4152,
      "Panel": 4153,
      "UM": 4154,
      "UN": 4155,
      "_S": 4156,
      "_ver": 4157,
      "_outputs": 4158,
      "`).": 4159,
      "fall": 4160,
      "nf": 4161,
      "txt": 4162,
      "vs": 4163,
      "wd": 4164,
      "y_pred": 4165,
      "tionError": 4166,
      "erson": 4167,
      "tenti": 4168,
      "quency": 4169,
      "tfms": 4170,
      "cach": 4171,
      "model_dir": 4172,
      "accumul": 4173,
      "mini": 4174,
      "deps": 4175,
      "temporary": 4176,
      "table_name": 4177,
      "basestring": 4178,
      "tomati": 4179,
      "separator": 4180,
      "inferred_": 4181,
      "Item": 4182,
      "positional": 4183,
      "guarante": 4184,
      "markup": 4185,
      "overrides": 4186,
      "smaller": 4187,
      "boosting": 4188,
      "decode_hp": 4189,
      "'#": 4190,
      "=%": 4191,
      "AS": 4192,
      "Pass": 4193,
      "Schema": 4194,
      "Softmax": 4195,
      "_e": 4196,
      "_seq": 4197,
      "dy_": 4198,
      "fp": 4199,
      "fer_": 4200,
      "ince": 4201,
      "arxi": 4202,
      "asing": 4203,
      "sively": 4204,
      "light": 4205,
      "body_": 4206,
      "do_": 4207,
      "key_channels": 4208,
      "([(": 4209,
      "pically": 4210,
      "_properties": 4211,
      "automati": 4212,
      "paces": 4213,
      "decode_hparams": 4214,
      "closure": 4215,
      "dummy": 4216,
      "activations": 4217,
      "compress": 4218,
      "learning_rate_warmup_steps": 4219,
      "still": 4220,
      "img_len": 4221,
      "field_name": 4222,
      "FloatTensor": 4223,
      "_policy_": 4224,
      "certain": 4225,
      "_metadata": 4226,
      "encoder_decoder_attention_bias": 4227,
      "arxiv": 4228,
      "'%": 4229,
      "(``": 4230,
      ":])": 4231,
      "IS_": 4232,
      "Su": 4233,
      "Save": 4234,
      "TF": 4235,
      "Tree": 4236,
      "hal": 4237,
      "ipy": 4238,
      "inverse": 4239,
      "seg": 4240,
      "isin": 4241,
      "role": 4242,
      "as_": 4243,
      "elt": 4244,
      "unused": 4245,
      "confi": 4246,
      "upt": 4247,
      "quote": 4248,
      "indexed": 4249,
      "_schema": 4250,
      "file_path": 4251,
      "installed": 4252,
      "caller": 4253,
      "_preds": 4254,
      "_predict": 4255,
      "passage": 4256,
      "included": 4257,
      "Local": 4258,
      "downcast": 4259,
      "stop_": 4260,
      "datasource_type": 4261,
      "Additional": 4262,
      "Predict": 4263,
      "TimedeltaIndex": 4264,
      "exactly": 4265,
      "transition_function": 4266,
      "Attribut": 4267,
      "Yields": 4268,
      "Storage": 4269,
      "Do": 4270,
      "Equivalent": 4271,
      "User": 4272,
      "hard": 4273,
      "xx": 4274,
      "as_list": 4275,
      "extr": 4276,
      "respect": 4277,
      "olds": 4278,
      "s_entropy": 4279,
      "denom": 4280,
      "minor": 4281,
      "occur": 4282,
      "substit": 4283,
      "commit": 4284,
      "datat": 4285,
      "RDDs": 4286,
      "layer_collection": 4287,
      "Proto": 4288,
      "SELE": 4289,
      "shifted": 4290,
      "larger": 4291,
      "absol": 4292,
      "timestamps": 4293,
      "performance": 4294,
      "memory_antecedent": 4295,
      "protocol": 4296,
      "Initialize": 4297,
      "Axes": 4298,
      "projection": 4299,
      "isode": 4300,
      "serialization_dir": 4301,
      "Usage": 4302,
      "Loss": 4303,
      "extras": 4304,
      "(%": 4305,
      "</": 4306,
      "KE": 4307,
      "KV": 4308,
      "PRE": 4309,
      "]}": 4310,
      "_tokens": 4311,
      "_dependencies": 4312,
      "mal": 4313,
      "ransform": 4314,
      "rest": 4315,
      "arbit": 4316,
      "self_": 4317,
      "uld_": 4318,
      "resnet": 4319,
      "_su": 4320,
      "_schedule": 4321,
      "default_name": 4322,
      "permission": 4323,
      "_stage": 4324,
      "Tensorboard": 4325,
      "candidate": 4326,
      "iteritems": 4327,
      "itemsize": 4328,
      "figure": 4329,
      "ambig": 4330,
      "_jdf": 4331,
      "Categories": 4332,
      "separate": 4333,
      "priori": 4334,
      "tasks": 4335,
      "hood": 4336,
      "currence": 4337,
      "notebook": 4338,
      "capture": 4339,
      "Loads": 4340,
      "combined": 4341,
      "global_step": 4342,
      "control_dependencies": 4343,
      "enabled": 4344,
      "much": 4345,
      "Swagger": 4346,
      "Variable": 4347,
      "should_": 4348,
      "one_hot": 4349,
      "\"\\": 4350,
      ")`": 4351,
      "98": 4352,
      "Line": 4353,
      "PER": 4354,
      "Sim": 4355,
      "Wor": 4356,
      "]})": 4357,
      "_all": 4358,
      "_level": 4359,
      "_env": 4360,
      "panel": 4361,
      "ww": 4362,
      "conven": 4363,
      "moe": 4364,
      "mover": 4365,
      "input_ids": 4366,
      "whole": 4367,
      "_fla": 4368,
      "imals": 4369,
      "na_value": 4370,
      "processor": 4371,
      "_proces": 4372,
      "addon": 4373,
      "decoded": 4374,
      "allowed_": 4375,
      "net_params": 4376,
      "2014": 4377,
      "Weight": 4378,
      "update_": 4379,
      "videos": 4380,
      "zeros_": 4381,
      "folder": 4382,
      "commands": 4383,
      "Polic": 4384,
      "indicates": 4385,
      "gateway": 4386,
      "index_col": 4387,
      "Callable": 4388,
      "increment": 4389,
      "effect": 4390,
      "Interval": 4391,
      "tz_localize": 4392,
      "adjusted": 4393,
      "Symbol": 4394,
      "Traceback": 4395,
      "'{}": 4396,
      "07": 4397,
      "720": 4398,
      "PE_": 4399,
      "US": 4400,
      "_train": 4401,
      "_make_": 4402,
      "fn_": 4403,
      "gold_": 4404,
      "gan_": 4405,
      "inct": 4406,
      "sec": 4407,
      "stable": 4408,
      "cost": 4409,
      "noqa": 4410,
      "traceback": 4411,
      "DataFrames": 4412,
      "_remover": 4413,
      "y_true": 4414,
      "impro": 4415,
      "norm_type": 4416,
      "Remove": 4417,
      "{})": 4418,
      "decode_": 4419,
      "stacklevel": 4420,
      "Open": 4421,
      "handler": 4422,
      "data_format": 4423,
      "host": 4424,
      "next_info": 4425,
      "annotations": 4426,
      "mtf_": 4427,
      "assumes": 4428,
      "DEF": 4429,
      "Writes": 4430,
      "gumbel": 4431,
      "statistics": 4432,
      "ds_type": 4433,
      "smallest": 4434,
      "CI": 4435,
      "Please": 4436,
      "WC": 4437,
      "_is": 4438,
      "bits": 4439,
      "mut": 4440,
      "rd": 4441,
      "zed_": 4442,
      "chain": 4443,
      "advan": 4444,
      "argsort": 4445,
      "indexers": 4446,
      "bounds": 4447,
      "Try": 4448,
      "prevent": 4449,
      "_back": 4450,
      "num_classes": 4451,
      "formats": 4452,
      "formatter": 4453,
      "Cont": 4454,
      "hidden_dim": 4455,
      "new_data": 4456,
      "normalization": 4457,
      "indicate": 4458,
      "initialization": 4459,
      "context_": 4460,
      "representations": 4461,
      "modified": 4462,
      "applying": 4463,
      "layer_norm": 4464,
      "data_batch": 4465,
      "lexity": 4466,
      "ooks": 4467,
      "dynam": 4468,
      "sort_values": 4469,
      "CSV": 4470,
      "remaining": 4471,
      "Callback": 4472,
      "accuracy": 4473,
      "cogni": 4474,
      "grouped": 4475,
      "AssertionError": 4476,
      "absolute": 4477,
      "31": 4478,
      "CA": 4479,
      "Li": 4480,
      "Metri": 4481,
      "[('": 4482,
      "_columns": 4483,
      "_order": 4484,
      "ased": 4485,
      "font": 4486,
      "happ": 4487,
      "mall": 4488,
      "tun": 4489,
      "onp": 4490,
      "leg": 4491,
      "ising": 4492,
      "ings": 4493,
      "ural": 4494,
      "edges": 4495,
      "unmasked": 4496,
      "itect": 4497,
      "master": 4498,
      "upload": 4499,
      "_py": 4500,
      "boun": 4501,
      "_bin": 4502,
      "num_channels": 4503,
      "_fname": 4504,
      "Expect": 4505,
      "tokens_": 4506,
      "pad_remover": 4507,
      "converter": 4508,
      "calls": 4509,
      "buted": 4510,
      "latform": 4511,
      "ough": 4512,
      "table_": 4513,
      "module_name": 4514,
      "sqlContext": 4515,
      "multiply": 4516,
      "slice_name": 4517,
      "_or_dtype": 4518,
      "ROU": 4519,
      "Iterable": 4520,
      "answers": 4521,
      "transformer_base": 4522,
      "optimizer_adam": 4523,
      "choices": 4524,
      "AUL": 4525,
      "chemy": 4526,
      "_to_java_column": 4527,
      "having": 4528,
      "RangeIndex": 4529,
      "automatically": 4530,
      "KEY": 4531,
      "KVStore": 4532,
      "DEFAUL": 4533,
      "happen": 4534,
      "78": 4535,
      "Don": 4536,
      "From": 4537,
      "Handle": 4538,
      "Manager": 4539,
      "_tuple": 4540,
      "_epoch": 4541,
      "_url": 4542,
      "cross": 4543,
      "ile": 4544,
      "sat": 4545,
      "ters": 4546,
      "w3": 4547,
      "}'.": 4548,
      "send": 4549,
      "amoun": 4550,
      "utes": 4551,
      "liter": 4552,
      "respec": 4553,
      "ckle": 4554,
      "_peri": 4555,
      "vec": 4556,
      "s_shape": 4557,
      "produce": 4558,
      "proxy": 4559,
      "episode": 4560,
      "tag_": 4561,
      "prefer": 4562,
      "potenti": 4563,
      "soli": 4564,
      "_stream": 4565,
      "Arrow": 4566,
      "word_": 4567,
      "subarr": 4568,
      "import_": 4569,
      "sum_": 4570,
      "new_categories": 4571,
      "arr_or_dtype": 4572,
      "templ": 4573,
      "conv_layer": 4574,
      "metric_": 4575,
      "ochast": 4576,
      "vector_": 4577,
      "architect": 4578,
      "chart": 4579,
      "from_params": 4580,
      "Optimi": 4581,
      "attention_dropout": 4582,
      "separated": 4583,
      "conditions": 4584,
      "duplicate": 4585,
      "calculate": 4586,
      "LOC": 4587,
      "slices": 4588,
      "Runtime": 4589,
      "region": 4590,
      "dentials": 4591,
      "percentiles": 4592,
      "digit": 4593,
      "multihead_attention": 4594,
      "anitize": 4595,
      "alog": 4596,
      "datatype": 4597,
      "Future": 4598,
      "Hadoop": 4599,
      "LL": 4600,
      "ME": 4601,
      "S3": 4602,
      "]',": 4603,
      "bio": 4604,
      "native": 4605,
      "ys": 4606,
      "inp": 4607,
      "reversed": 4608,
      "throw": 4609,
      "to_dict": 4610,
      "edu": 4611,
      "external": 4612,
      "made": 4613,
      "conll": 4614,
      "op_name": 4615,
      "()]": 4616,
      "_save": 4617,
      "s_dict": 4618,
      "aper": 4619,
      "Indices": 4620,
      "terms": 4621,
      "logic": 4622,
      "model_path": 4623,
      "comments": 4624,
      "df1": 4625,
      "install": 4626,
      "token_": 4627,
      "tokenize": 4628,
      "mething": 4629,
      "export": 4630,
      "creating": 4631,
      "_paths": 4632,
      "pandas_udf": 4633,
      "learner": 4634,
      "sample_weight": 4635,
      "Result": 4636,
      "Stata": 4637,
      "deseri": 4638,
      "wrapped": 4639,
      "simul": 4640,
      "vision": 4641,
      "_or_buffer": 4642,
      "followed": 4643,
      "Should": 4644,
      "excluding": 4645,
      "Checks": 4646,
      "Streaming": 4647,
      "dashboard": 4648,
      "assignments": 4649,
      "answer_": 4650,
      "pooling": 4651,
      "deterministic": 4652,
      "identical": 4653,
      "detect": 4654,
      "describe": 4655,
      "_parse_": 4656,
      "truth": 4657,
      "Download": 4658,
      "comparison": 4659,
      "ConfigurationError": 4660,
      "arbitrary": 4661,
      "FutureWarning": 4662,
      ":],": 4663,
      "Bo": 4664,
      "C_": 4665,
      "HI": 4666,
      "MO": 4667,
      "Stop": 4668,
      "_arg": 4669,
      "_new": 4670,
      "_unit": 4671,
      "_mapping": 4672,
      "_AX": 4673,
      "`)": 4674,
      "ainst": 4675,
      "aff": 4676,
      "bad": 4677,
      "bank": 4678,
      "iloc": 4679,
      "r_": 4680,
      "scat": 4681,
      "sched": 4682,
      "rec": 4683,
      "animal": 4684,
      "is_scalar": 4685,
      "coeff": 4686,
      "sist": 4687,
      "sitions": 4688,
      "uler": 4689,
      "retrie": 4690,
      "stru": 4691,
      "ckpt": 4692,
      "updates": 4693,
      "out_": 4694,
      "use_bias": 4695,
      "_dist": 4696,
      "cheme": 4697,
      "train_data": 4698,
      "denot": 4699,
      "against": 4700,
      "deployment": 4701,
      "ocation": 4702,
      "weighted": 4703,
      "scipy": 4704,
      "discreti": 4705,
      "reader": 4706,
      "quick": 4707,
      "ddof": 4708,
      "2017": 4709,
      "Web": 4710,
      "datasources": 4711,
      "categoricals": 4712,
      "interpret": 4713,
      "initial_state": 4714,
      "decimals": 4715,
      "DFU": 4716,
      "faster": 4717,
      "switch": 4718,
      "basic_": 4719,
      "recursive": 4720,
      "lstm": 4721,
      "inesis": 4722,
      "Maximum": 4723,
      "spatial": 4724,
      "reward_mask": 4725,
      "momentum": 4726,
      "LongTensor": 4727,
      "Attribute": 4728,
      "ransformer_": 4729,
      "\"-": 4730,
      "-=": 4731,
      "65": 4732,
      "Cop": 4733,
      "Est": 4734,
      "MM": 4735,
      "Mon": 4736,
      "TP": 4737,
      "_response": 4738,
      "ai": 4739,
      "crit": 4740,
      "gate_": 4741,
      "kely": 4742,
      "xgb": 4743,
      "ylabel": 4744,
      "related": 4745,
      "anh": 4746,
      "adds": 4747,
      "define": 4748,
      "with_": 4749,
      "s_result": 4750,
      "prepare": 4751,
      "cached": 4752,
      "density": 4753,
      "ild_": 4754,
      "implicit": 4755,
      "c_char": 4756,
      "evals": 4757,
      "count_": 4758,
      "memory_blocks": 4759,
      "checks": 4760,
      "_indexes": 4761,
      "regres": 4762,
      "_summ": 4763,
      "_java": 4764,
      "handles": 4765,
      "windows": 4766,
      "TOR": 4767,
      "produced": 4768,
      "kvstore": 4769,
      "Training": 4770,
      "TYPE_": 4771,
      "filepath_or_buffer": 4772,
      "linking_scores": 4773,
      "aware": 4774,
      "half": 4775,
      "'-": 4776,
      "DA": 4777,
      "MN": 4778,
      "_iter": 4779,
      "_attributes": 4780,
      "gzip": 4781,
      "google": 4782,
      "rather": 4783,
      "uint8": 4784,
      "xl": 4785,
      "onic": 4786,
      "asy": 4787,
      "likely": 4788,
      "trim": 4789,
      "))]": 4790,
      "s_list": 4791,
      "delt": 4792,
      "num_edge": 4793,
      "_flat": 4794,
      "something": 4795,
      "Exec": 4796,
      "aged": 4797,
      "evals_result": 4798,
      "_rates": 4799,
      "individ": 4800,
      "']],": 4801,
      "feature_depth": 4802,
      "contents": 4803,
      "Resh": 4804,
      "correspond": 4805,
      "constan": 4806,
      "monkey": 4807,
      "decoder_input": 4808,
      "ross_entropy": 4809,
      "DatasetSplit": 4810,
      "client": 4811,
      "serializer": 4812,
      "going": 4813,
      "expert_capacity": 4814,
      "environments": 4815,
      "exprs": 4816,
      "NOT": 4817,
      "compat_args": 4818,
      "coordinate": 4819,
      "preserve": 4820,
      "find_element": 4821,
      "cond_latents": 4822,
      "weight_decay": 4823,
      "_splits": 4824,
      "decorator": 4825,
      "priority": 4826,
      "amount": 4827,
      "Optimizer": 4828,
      "_AXIS_": 4829,
      "num_edge_types": 4830,
      "1D": 4831,
      ":%": 4832,
      "SS": 4833,
      "SV": 4834,
      "]`": 4835,
      "_concat": 4836,
      "_bottom": 4837,
      "__init": 4838,
      "bc": 4839,
      "gath": 4840,
      "gpus": 4841,
      "mess": 4842,
      "rb": 4843,
      "s3": 4844,
      "scor": 4845,
      "void": 4846,
      "erge": 4847,
      "reset_": 4848,
      "ors": 4849,
      "detach": 4850,
      "ift": 4851,
      "rag": 4852,
      "parameter_": 4853,
      "_sz": 4854,
      "problems": 4855,
      "pytorch": 4856,
      "codebook": 4857,
      "_message": 4858,
      "curity": 4859,
      "orizer": 4860,
      "Exp": 4861,
      "depending": 4862,
      "expan": 4863,
      "avg_": 4864,
      "transl": 4865,
      "dropped": 4866,
      "converting": 4867,
      "_proto": 4868,
      "ffer_": 4869,
      "exceptions": 4870,
      "visual": 4871,
      "2048": 4872,
      "Coun": 4873,
      "autoregres": 4874,
      "previous_": 4875,
      "dispatcher": 4876,
      "determined": 4877,
      "pretrained": 4878,
      "mgr_locs": 4879,
      "copies": 4880,
      "Scalar": 4881,
      "However": 4882,
      "Parallelism": 4883,
      "agonal": 4884,
      "Estim": 4885,
      "({\"": 4886,
      "DMatrix": 4887,
      "Ev": 4888,
      "IM": 4889,
      "P_": 4890,
      "Single": 4891,
      "cv": 4892,
      "eq": 4893,
      "game": 4894,
      "hs": 4895,
      "hard_": 4896,
      "tb": 4897,
      "tures": 4898,
      "deDuration": 4899,
      "\"\",": 4900,
      "ifar": 4901,
      "asure": 4902,
      "pars": 4903,
      "utc": 4904,
      "erspec": 4905,
      "_pair": 4906,
      "olved": 4907,
      "_safe": 4908,
      "_smoothing": 4909,
      "usecols": 4910,
      "keywords": 4911,
      "perty": 4912,
      "label_smoothing": 4913,
      "object_": 4914,
      "_mon": 4915,
      "attention_value": 4916,
      "imaget": 4917,
      "correlation": 4918,
      "floats": 4919,
      "sess": 4920,
      "bool_": 4921,
      "...]": 4922,
      "_ind": 4923,
      "aves": 4924,
      "timing_": 4925,
      "lated_": 4926,
      "max_seq": 4927,
      "Rest": 4928,
      "Requi": 4929,
      "mismatch": 4930,
      "indent": 4931,
      "keep_prob": 4932,
      "separable": 4933,
      "DOCS": 4934,
      "_embeddings": 4935,
      "extracted": 4936,
      "query_antecedent": 4937,
      "serialized": 4938,
      "ensure_": 4939,
      "implemented": 4940,
      "assignment": 4941,
      "availab": 4942,
      "sharded_": 4943,
      "Vectors": 4944,
      "TION_": 4945,
      "_finished": 4946,
      "numeric_only": 4947,
      "built": 4948,
      "quoted": 4949,
      "describ": 4950,
      "degrees": 4951,
      "recei": 4952,
      "Simil": 4953,
      "2D": 4954,
      "38": 4955,
      "3d_": 4956,
      "45": 4957,
      "85": 4958,
      "Gra": 4959,
      "Min": 4960,
      "Pad": 4961,
      "Redu": 4962,
      "Server": 4963,
      "_and": 4964,
      "_default": 4965,
      "_equal": 4966,
      "_noise": 4967,
      "gn": 4968,
      "mult": 4969,
      "please": 4970,
      "xlabel": 4971,
      "inds": 4972,
      "reach": 4973,
      "seen": 4974,
      "security": 4975,
      "ards": 4976,
      "lead": 4977,
      "tolist": 4978,
      "\"\")": 4979,
      "unpack": 4980,
      "arg_name": 4981,
      "_pandas": 4982,
      "s__": 4983,
      "er_dtype": 4984,
      "Trans": 4985,
      "(\"\\": 4986,
      "num_w": 4987,
      "num_devices": 4988,
      "to_numpy": 4989,
      "is_bool": 4990,
      "There": 4991,
      "ators": 4992,
      "Concat": 4993,
      "background": 4994,
      "versionchanged": 4995,
      "nonterminal": 4996,
      "augment": 4997,
      "plot_": 4998,
      "computing": 4999,
      "mllib": 5000,
      "mlperf": 5001,
      "data_columns": 5002,
      "resolver": 5003,
      "Columns": 5004,
      "distinct": 5005,
      "aggregation": 5006,
      "experts_dim": 5007,
      "combine_": 5008,
      "+---+-----+": 5009,
      "accepts": 5010,
      "lstm_": 5011,
      "Instance": 5012,
      "squared_": 5013,
      "detector": 5014,
      "visual_": 5015,
      "Corr": 5016,
      "_start_": 5017,
      "cfg": 5018,
      "normalized_": 5019,
      "dashboard_": 5020,
      "ambiguous": 5021,
      "Policy": 5022,
      "deltas": 5023,
      "\"].": 5024,
      ")-": 5025,
      "35": 5026,
      "MAP": 5027,
      "RGB": 5028,
      "Take": 5029,
      "Vocab": 5030,
      "[...,": 5031,
      "_sh": 5032,
      "_height": 5033,
      "k_": 5034,
      "my_": 5035,
      "nans": 5036,
      "nlevels": 5037,
      "pip": 5038,
      "paper": 5039,
      "rl_": 5040,
      "ude": 5041,
      "vl": 5042,
      "att_": 5043,
      "onn": 5044,
      "coefficient": 5045,
      "roun": 5046,
      "if_": 5047,
      "dia": 5048,
      "mpty": 5049,
      "prod": 5050,
      "domain": 5051,
      "input_dict": 5052,
      "keyarr": 5053,
      "output_dim": 5054,
      "row_": 5055,
      "Arn": 5056,
      "_recor": 5057,
      "\":\"": 5058,
      "depends": 5059,
      "kwarg": 5060,
      "64Index": 5061,
      "__doc_": 5062,
      "licas": 5063,
      "_random": 5064,
      "reading": 5065,
      "fillna": 5066,
      "worker_": 5067,
      "scalars": 5068,
      "assert_": 5069,
      "attention_key_channels": 5070,
      "latent_dim": 5071,
      "Problem": 5072,
      "resolution": 5073,
      "replacement": 5074,
      "output_channels": 5075,
      "genet": 5076,
      "StringType": 5077,
      "000000": 5078,
      "Assum": 5079,
      "truncate": 5080,
      "\")).": 5081,
      "Auth": 5082,
      "ffn_unit": 5083,
      "gather_": 5084,
      "__doc__": 5085,
      ".\",": 5086,
      "0x": 5087,
      "400": 5088,
      "97": 5089,
      "Big": 5090,
      "Emb": 5091,
      "GROU": 5092,
      "MX": 5093,
      "Ratio": 5094,
      "Test": 5095,
      "_y": 5096,
      "_group": 5097,
      "_device": 5098,
      "_try_": 5099,
      "cd": 5100,
      "cross_entropy": 5101,
      "lm": 5102,
      "mam": 5103,
      "nrow": 5104,
      "ush": 5105,
      "incorrect": 5106,
      "reas": 5107,
      "ped_": 5108,
      "lihood": 5109,
      "mast": 5110,
      "``)": 5111,
      "``:": 5112,
      "mod_": 5113,
      "()`": 5114,
      "_single": 5115,
      "\",\"": 5116,
      "('\\": 5117,
      "('--": 5118,
      "_directory": 5119,
      "comment": 5120,
      "num_transforms": 5121,
      "feval": 5122,
      "treat": 5123,
      "initialized": 5124,
      "sampled": 5125,
      "directories": 5126,
      "test_": 5127,
      "_dup": 5128,
      "descending": 5129,
      "LEFT": 5130,
      "mies": 5131,
      "11300": 5132,
      "problem_name": 5133,
      "SparseSeries": 5134,
      "video_": 5135,
      "displayed": 5136,
      "assume": 5137,
      "concatenation": 5138,
      "concatenated": 5139,
      "memory_usage": 5140,
      "boundaries": 5141,
      "_sqla": 5142,
      "UTF": 5143,
      "timescales": 5144,
      "Performs": 5145,
      "vertical": 5146,
      "_flags": 5147,
      "Copy": 5148,
      "attention_value_channels": 5149,
      "Embed": 5150,
      "mammal": 5151,
      "reason": 5152,
      "51": 5153,
      "Here": 5154,
      "Identi": 5155,
      "L_": 5156,
      "Since": 5157,
      "[<": 5158,
      "_copy": 5159,
      "_na": 5160,
      "_max_": 5161,
      "_version": 5162,
      "_load": 5163,
      "_weights": 5164,
      "_api": 5165,
      "__fin": 5166,
      "due": 5167,
      "fine": 5168,
      "gaussian": 5169,
      "hack": 5170,
      "pen": 5171,
      "pct": 5172,
      "}{": 5173,
      "recogni": 5174,
      "altern": 5175,
      "ceed": 5176,
      "and_value": 5177,
      "andler": 5178,
      "ateway": 5179,
      "itable": 5180,
      "wide": 5181,
      "mach": 5182,
      "outside": 5183,
      "quar": 5184,
      "_same": 5185,
      "rity": 5186,
      "doing": 5187,
      "derr": 5188,
      "new_state": 5189,
      "trainer_": 5190,
      "spac": 5191,
      "Experi": 5192,
      "sequent": 5193,
      "base_": 5194,
      "initialize": 5195,
      "Defin": 5196,
      "_pool": 5197,
      "ilities": 5198,
      "ERS": 5199,
      "cloud": 5200,
      "attention_unit": 5201,
      "alize__": 5202,
      "resolved": 5203,
      "things": 5204,
      "sinus": 5205,
      "LAB": 5206,
      "batch_env": 5207,
      "integrity": 5208,
      "extensions": 5209,
      "ATI": 5210,
      "verbose_eval": 5211,
      "transitions": 5212,
      "_flatten": 5213,
      "learning_rate_decay": 5214,
      "slideDuration": 5215,
      "Build": 5216,
      "slicer": 5217,
      "identifi": 5218,
      "ierarch": 5219,
      "sql_ctx": 5220,
      "Learner": 5221,
      "messages": 5222,
      "__finalize__": 5223,
      "Cl": 5224,
      "Deter": 5225,
      "Frame": 5226,
      "Found": 5227,
      "Kinesis": 5228,
      "Print": 5229,
      "USE": 5230,
      "Writer": 5231,
      "]=": 5232,
      "]``,": 5233,
      "_C": 5234,
      "_options": 5235,
      "_sizes": 5236,
      "_validate_": 5237,
      "glow": 5238,
      "jdf": 5239,
      "mic": 5240,
      "margin": 5241,
      "ps_": 5242,
      "sof": 5243,
      "slots": 5244,
      "uint64": 5245,
      "restore": 5246,
      "tively": 5247,
      "ctype": 5248,
      "return_": 5249,
      "num_bits": 5250,
      "_pri": 5251,
      "_pretrain": 5252,
      "qual": 5253,
      "neg_": 5254,
      "Infer": 5255,
      "mental": 5256,
      "function_": 5257,
      "sole": 5258,
      "imize": 5259,
      "targeting": 5260,
      "acc": 5261,
      "compiled": 5262,
      "again": 5263,
      "is_numeric_": 5264,
      "classification": 5265,
      "block_v": 5266,
      "converts": 5267,
      "new_shape": 5268,
      "uniqu": 5269,
      "embedded": 5270,
      "sentin": 5271,
      "writes": 5272,
      "writing": 5273,
      "phase": 5274,
      "]]:": 5275,
      "Bytes": 5276,
      "offsets": 5277,
      "colors": 5278,
      "separability": 5279,
      "train_set": 5280,
      "storing": 5281,
      "versal": 5282,
      "Specify": 5283,
      "cumulative": 5284,
      "executed": 5285,
      "number_of_": 5286,
      "Axis": 5287,
      "_get_axis_number": 5288,
      "copied": 5289,
      "_stats": 5290,
      "piece": 5291,
      "Packed": 5292,
      "max_area_width": 5293,
      "vars_3d_": 5294,
      "c_char_p": 5295,
      "_summaries": 5296,
      "__init__": 5297,
      "autoregressive": 5298,
      "vars_3d_num_heads": 5299,
      "\"'": 5300,
      "\"<": 5301,
      "90": 5302,
      ":-": 5303,
      "Fl": 5304,
      "Last": 5305,
      "MS": 5306,
      "MAX": 5307,
      "_D": 5308,
      "_transform": 5309,
      "_dropout": 5310,
      "_variables": 5311,
      "bab": 5312,
      "clear": 5313,
      "hex": 5314,
      "hierarch": 5315,
      "q_padding": 5316,
      "vq": 5317,
      "{:": 5318,
      "}\")": 5319,
      "recomm": 5320,
      "relev": 5321,
      "sect": 5322,
      "stub": 5323,
      "determ": 5324,
      "leave": 5325,
      "isy_": 5326,
      "is_float": 5327,
      "uri": 5328,
      "parag": 5329,
      "lite": 5330,
      "itude": 5331,
      "makes": 5332,
      "arg_params": 5333,
      "()).": 5334,
      "_so": 5335,
      "_sy": 5336,
      "_skip": 5337,
      "_bit": 5338,
      "num_decoder_layers": 5339,
      "suitable": 5340,
      "to_int32": 5341,
      "raised": 5342,
      "float16": 5343,
      "iterables": 5344,
      "is_object": 5345,
      "gives": 5346,
      "maps": 5347,
      "places": 5348,
      "functools": 5349,
      "statement": 5350,
      "loading": 5351,
      "_blocks_dim": 5352,
      "10000": 5353,
      "best_score": 5354,
      "username": 5355,
      "predicted_": 5356,
      "start_index": 5357,
      "resolved_": 5358,
      "requests": 5359,
      "longer": 5360,
      "shift_": 5361,
      "hash_key": 5362,
      "spaCy": 5363,
      "good": 5364,
      "pearson": 5365,
      "image_shapes": 5366,
      "Validation": 5367,
      "_bytes": 5368,
      "pretrained_": 5369,
      "complete": 5370,
      "explicitly": 5371,
      "Evaluate": 5372,
      "holidays": 5373,
      "length_kv": 5374,
      "factori": 5375,
      "guaranteed": 5376,
      "architecture": 5377,
      "Reshape": 5378,
      "RestApi": 5379,
      "onnx": 5380,
      "relevant": 5381,
      "determine": 5382,
      "paragraph": 5383,
      ")``.": 5384,
      "76": 5385,
      "94": 5386,
      "AW": 5387,
      "Desc": 5388,
      "EVAL": 5389,
      "Fre": 5390,
      "Match": 5391,
      "Util": 5392,
      "VE": 5393,
      "deri": 5394,
      "eo": 5395,
      "hig": 5396,
      "mk": 5397,
      "ness": 5398,
      "ski": 5399,
      "stderr": 5400,
      "dec_": 5401,
      "retain": 5402,
      "set_shape": 5403,
      "box_": 5404,
      "_mgr": 5405,
      "get_option": 5406,
      "']))": 5407,
      "finish": 5408,
      "conv_": 5409,
      "conv2d": 5410,
      "matrices": 5411,
      "make_block": 5412,
      "matching_": 5413,
      "sensi": 5414,
      "channels_": 5415,
      "inclusive": 5416,
      "STR": 5417,
      "resource_dict": 5418,
      "metric_name": 5419,
      "Property": 5420,
      "start_time": 5421,
      "filter_by": 5422,
      "categorical_feature": 5423,
      "separately": 5424,
      "simulation": 5425,
      "ND_": 5426,
      "partitioned": 5427,
      "PathOr": 5428,
      "_1d": 5429,
      "shared": 5430,
      "kv_padding": 5431,
      "ATH": 5432,
      "frequencies": 5433,
      "chosen": 5434,
      "BlockManager": 5435,
      "_productions": 5436,
      "tokenized": 5437,
      "distributions": 5438,
      "Char": 5439,
      "optimizer_params": 5440,
      "Features": 5441,
      "attn": 5442,
      "policy_and_value": 5443,
      "Constructs": 5444,
      "approximate": 5445,
      "_pipe": 5446,
      "================": 5447,
      "intent_request": 5448,
      "verify_integrity": 5449,
      "arithme": 5450,
      "decrease": 5451,
      "trajectories": 5452,
      "is_datetimelike_v": 5453,
      "_verifier": 5454,
      "SELECT": 5455,
      "RuntimeError": 5456,
      "AttributeError": 5457,
      "imagetransformer_": 5458,
      "block_v_size": 5459,
      "sentinel": 5460,
      "PackedSequence": 5461,
      "highe": 5462,
      "2d_": 5463,
      "500": 5464,
      "96": 5465,
      "?,": 5466,
      "Ali": 5467,
      "CF": 5468,
      "FAR": 5469,
      "OP": 5470,
      "Top": 5471,
      "_of": 5472,
      "_top": 5473,
      "_axes": 5474,
      "_Booster": 5475,
      "care": 5476,
      "fy": 5477,
      "fold": 5478,
      "i_": 5479,
      "nat": 5480,
      "ot_": 5481,
      "pur": 5482,
      "per_": 5483,
      "prag": 5484,
      "sol": 5485,
      "xent": 5486,
      "recurrent_": 5487,
      "ark": 5488,
      "delim": 5489,
      "tible": 5490,
      "leep": 5491,
      "child_": 5492,
      "edy": 5493,
      "ume": 5494,
      "ellow": 5495,
      "wiki": 5496,
      "mak": 5497,
      "nos": 5498,
      "mouse": 5499,
      "opts": 5500,
      "_ppo": 5501,
      "set_float": 5502,
      "sorter": 5503,
      "s_fn": 5504,
      "axs": 5505,
      "pointer": 5506,
      "])]": 5507,
      "label_shape": 5508,
      "itertools": 5509,
      "css": 5510,
      "creen": 5511,
      "gistry": 5512,
      "mapPartitions": 5513,
      "new_grammar": 5514,
      "integr": 5515,
      "add_relative": 5516,
      "']['": 5517,
      "intersect": 5518,
      "generating": 5519,
      "_to_values": 5520,
      "extraction": 5521,
      "First": 5522,
      "_hooks": 5523,
      "supported_": 5524,
      "Timeout": 5525,
      "keepdims": 5526,
      "encoder_input": 5527,
      "Step": 5528,
      "probs": 5529,
      "constra": 5530,
      "links": 5531,
      "Partition": 5532,
      "Span": 5533,
      "streams": 5534,
      "streaming": 5535,
      "dependency": 5536,
      "NORE": 5537,
      "nb_": 5538,
      "pearman": 5539,
      "summari": 5540,
      "clusters": 5541,
      "best_iteration": 5542,
      "agenda_": 5543,
      "Some": 5544,
      "Labels": 5545,
      "consistent": 5546,
      "top_beams": 5547,
      "rollouts": 5548,
      "attempt": 5549,
      "convolutions": 5550,
      "layer_postprocess": 5551,
      "IGNORE": 5552,
      "improve": 5553,
      "optimizer_adam_beta": 5554,
      "Estimator": 5555,
      "Similar": 5556,
      "Reduce": 5557,
      "pragma": 5558,
      "add_relative_to_values": 5559,
      ");": 5560,
      "Agg": 5561,
      "Fil": 5562,
      "IS": 5563,
      "My": 5564,
      "Put": 5565,
      "Sample": 5566,
      "_node": 5567,
      "branch": 5568,
      "cmd": 5569,
      "yet": 5570,
      "zo": 5571,
      "issubclass": 5572,
      "cov": 5573,
      "choo": 5574,
      "ifnone": 5575,
      "asses": 5576,
      "asi8": 5577,
      "nothing": 5578,
      "constru": 5579,
      "_prop": 5580,
      "_perspec": 5581,
      "d_model": 5582,
      "tfm": 5583,
      "whit": 5584,
      "('.": 5585,
      "persist": 5586,
      "DataType": 5587,
      "num_mix": 5588,
      "output_shape": 5589,
      "success": 5590,
      "Parameter": 5591,
      "_manager": 5592,
      "target_space": 5593,
      "agg_": 5594,
      "csc": 5595,
      "creates": 5596,
      "_infer": 5597,
      "service": 5598,
      "convertible": 5599,
      "linearity": 5600,
      "placeh": 5601,
      "aux_": 5602,
      "treated": 5603,
      "irth": 5604,
      "syn": 5605,
      "selected_": 5606,
      "signed": 5607,
      "represented": 5608,
      "limited": 5609,
      "evaluated": 5610,
      "observed": 5611,
      "Start": 5612,
      "end_index": 5613,
      "init_": 5614,
      "coerce_float": 5615,
      "spaces": 5616,
      "patterns": 5617,
      "distributed": 5618,
      "discrete_": 5619,
      "fastpath": 5620,
      "dependent": 5621,
      "Mean": 5622,
      "components": 5623,
      "calculated": 5624,
      "trunc": 5625,
      "Specifies": 5626,
      "StructField": 5627,
      "_convert_to_": 5628,
      "threads": 5629,
      "Int64Index": 5630,
      "Activ": 5631,
      "_freq": 5632,
      "remaining_": 5633,
      "Complexity": 5634,
      "propag": 5635,
      "druid": 5636,
      "Replacement": 5637,
      "pieces": 5638,
      "_grad_norm": 5639,
      "CIFAR": 5640,
      "DEFAULT_": 5641,
      "ochastic": 5642,
      "coeffs": 5643,
      "Embedding": 5644,
      "Aggreg": 5645,
      "num_mixtures": 5646,
      ")/": 5647,
      "70": 5648,
      "Dum": 5649,
      "ES": 5650,
      "Eval": 5651,
      "Empty": 5652,
      "HWC": 5653,
      "Mem": 5654,
      "Pos": 5655,
      "SER": 5656,
      "_dataset": 5657,
      "_resource": 5658,
      "_wrap": 5659,
      "_counts": 5660,
      "_epsilon": 5661,
      "hol": 5662,
      "jvm": 5663,
      "qry": 5664,
      "ring": 5665,
      "ton": 5666,
      "tanh": 5667,
      "repl": 5668,
      "rest_": 5669,
      "deal": 5670,
      "rout": 5671,
      "divisible": 5672,
      "returnType": 5673,
      "magn": 5674,
      "atively": 5675,
      "putmask": 5676,
      "()),": 5677,
      "veral": 5678,
      "web": 5679,
      "teach": 5680,
      "bases": 5681,
      "to_timedelta": 5682,
      "IndexError": 5683,
      "----------+": 5684,
      "_reference": 5685,
      "compile": 5686,
      "Exist": 5687,
      "export_": 5688,
      "_inplace": 5689,
      "avro": 5690,
      "subsequent": 5691,
      "_r2": 5692,
      "vocab_filename": 5693,
      "intervals": 5694,
      "interface": 5695,
      "scale_": 5696,
      "training_buffer": 5697,
      "overflow": 5698,
      "_dict__": 5699,
      "libs": 5700,
      "linalg": 5701,
      "node_states": 5702,
      "existent": 5703,
      "represents": 5704,
      "encoder_self_attention_bias": 5705,
      "_dl": 5706,
      "_kind": 5707,
      "defines": 5708,
      "faces": 5709,
      "ALI": 5710,
      "resolvers": 5711,
      "hyperparameter": 5712,
      "SparseVector": 5713,
      "_array_dtype": 5714,
      "999": 5715,
      "ELMo": 5716,
      "alignment": 5717,
      "letter": 5718,
      "InvalidResource": 5719,
      "Formatter": 5720,
      "registry": 5721,
      "cosine": 5722,
      "gap_size": 5723,
      "convolutional": 5724,
      "is_extension_array_dtype": 5725,
      "Currently": 5726,
      "respectively": 5727,
      "Requires": 5728,
      "quarter": 5729,
      "LABEL": 5730,
      "matching_vector": 5731,
      "PathOrStr": 5732,
      "highest": 5733,
      "aux_params": 5734,
      "magnitude": 5735,
      "(`": 5736,
      "22": 5737,
      "<<": 5738,
      "={": 5739,
      "Dash": 5740,
      "HE": 5741,
      "KL": 5742,
      "Same": 5743,
      "Targ": 5744,
      "]['": 5745,
      "_N": 5746,
      "_utils": 5747,
      "__dict__": 5748,
      "eg": 5749,
      "fac": 5750,
      "nt_": 5751,
      "t1": 5752,
      "tex": 5753,
      "tiny": 5754,
      "wb": 5755,
      "yes": 5756,
      "thon_": 5757,
      "sections": 5758,
      "ama": 5759,
      "lices": 5760,
      "licates": 5761,
      "dicate": 5762,
      "diagonal": 5763,
      "und_": 5764,
      "itted": 5765,
      "no_": 5766,
      "int16": 5767,
      "getitem": 5768,
      "_pl": 5769,
      "obs_": 5770,
      "sors": 5771,
      "prows": 5772,
      "ricul": 5773,
      "num_data": 5774,
      "num_workers": 5775,
      "arily": 5776,
      "_reduce": 5777,
      "Expr": 5778,
      "float_format": 5779,
      "is_dtype": 5780,
      "give": 5781,
      "block_width": 5782,
      "otonic": 5783,
      "_type_verifier": 5784,
      "memb": 5785,
      "member": 5786,
      "dictionaries": 5787,
      "multicolumn": 5788,
      "checking": 5789,
      "pandas_dtype": 5790,
      "nonexistent": 5791,
      "transformations": 5792,
      "ically": 5793,
      "attention_k": 5794,
      "folds": 5795,
      "dummies": 5796,
      "Shift": 5797,
      "Pool": 5798,
      "MLlib": 5799,
      "shard_": 5800,
      "quantiles": 5801,
      "HTTP": 5802,
      "_check_": 5803,
      "debug_": 5804,
      "best_ntree_limit": 5805,
      "segmentation": 5806,
      "recursively": 5807,
      "local_attention_": 5808,
      "median": 5809,
      "Dropout": 5810,
      "_make_type_verifier": 5811,
      "user_id": 5812,
      "ImportError": 5813,
      "stop_gradient": 5814,
      "StorageLevel": 5815,
      "_suffix": 5816,
      "individual": 5817,
      "_safe_call": 5818,
      "mlperf_log": 5819,
      "is_object_dtype": 5820,
      "Utils": 5821,
      "construction": 5822,
      "InvalidResourceException": 5823,
      "Target": 5824,
      "riculum": 5825,
      "${": 5826,
      "29": 5827,
      "77": 5828,
      "FF": 5829,
      "Glob": 5830,
      "Mat": 5831,
      "Mapp": 5832,
      "PPO": 5833,
      "Plot": 5834,
      "_item": 5835,
      "_memory": 5836,
      "_desc": 5837,
      "`:": 5838,
      "cc": 5839,
      "cp": 5840,
      "cr": 5841,
      "hit": 5842,
      "ld": 5843,
      "men": 5844,
      "rgb": 5845,
      "wav": 5846,
      "xlim": 5847,
      "req": 5848,
      "esi": 5849,
      "tower": 5850,
      "coverage": 5851,
      "peat": 5852,
      "did": 5853,
      "lag": 5854,
      "excel": 5855,
      "consum": 5856,
      "name_scope": 5857,
      "moving": 5858,
      "not_": 5859,
      "upsample": 5860,
      "()):": 5861,
      "outer_": 5862,
      "formed": 5863,
      "keyed": 5864,
      "endpoint": 5865,
      "result_type": 5866,
      "appended": 5867,
      "_style": 5868,
      "date_range": 5869,
      "imagenet": 5870,
      "dicts": 5871,
      "_replace": 5872,
      "masks": 5873,
      "masking": 5874,
      "is_train": 5875,
      "classifier": 5876,
      "credentials": 5877,
      "free": 5878,
      "checkpoints": 5879,
      "sigma": 5880,
      "_pred_": 5881,
      "iliary": 5882,
      "\"]:": 5883,
      "Rows": 5884,
      "after_": 5885,
      "computes": 5886,
      "Combine": 5887,
      "_conll": 5888,
      "']).": 5889,
      "windowDuration": 5890,
      "metrics_": 5891,
      "metric_fn": 5892,
      "unknow": 5893,
      "use_td": 5894,
      "Stat": 5895,
      "Star": 5896,
      "tives": 5897,
      "Properties": 5898,
      "mxnet": 5899,
      "decay_": 5900,
      "batch_norm": 5901,
      "correctly": 5902,
      "span_end": 5903,
      "compressed": 5904,
      "compressed_": 5905,
      "layer_preprocess_sequence": 5906,
      "flattened": 5907,
      "simply": 5908,
      "loop_step": 5909,
      "text_encoder": 5910,
      "duplicated": 5911,
      "Validate": 5912,
      "modality_type": 5913,
      "infer_dtype": 5914,
      "replicas": 5915,
      "Buil": 5916,
      "Sequential": 5917,
      "_permission": 5918,
      "reduction": 5919,
      "percentile": 5920,
      "Wrapper": 5921,
      "t2t_": 5922,
      "layer_postprocess_sequence": 5923,
      "compress_steps": 5924,
      "hours": 5925,
      "decode_loop_step": 5926,
      "separable_conv": 5927,
      "skiprows": 5928,
      "rest_api": 5929,
      "unknown": 5930,
      "'/": 5931,
      ")',": 5932,
      "4d": 5933,
      "409": 5934,
      "434": 5935,
      "56": 5936,
      "86": 5937,
      ">``": 5938,
      "And": 5939,
      "AIL": 5940,
      "Back": 5941,
      "CPU": 5942,
      "Driver": 5943,
      "Graph": 5944,
      "PI": 5945,
      "Show": 5946,
      "VER": 5947,
      "_B": 5948,
      "_int": 5949,
      "_code": 5950,
      "`(": 5951,
      "bus": 5952,
      "fs": 5953,
      "gym": 5954,
      "lvl": 5955,
      "png": 5956,
      "pprint_": 5957,
      "r2": 5958,
      "sur": 5959,
      "turn": 5960,
      "tm_": 5961,
      "uation": 5962,
      "v_": 5963,
      "ylim": 5964,
      "tigu": 5965,
      "toler": 5966,
      "laz": 5967,
      "col_obj": 5968,
      "upy": 5969,
      "batchnorm": 5970,
      "preference": 5971,
      "posed": 5972,
      "endar": 5973,
      "num_compress_steps": 5974,
      "users": 5975,
      "cator": 5976,
      "curriculum": 5977,
      "ntax": 5978,
      "can_": 5979,
      "expon": 5980,
      "step_": 5981,
      "eval_metrics": 5982,
      "na_values": 5983,
      "_proj": 5984,
      "start_pos": 5985,
      "tz_dtype": 5986,
      "Decoder": 5987,
      "PyT": 5988,
      "apply_": 5989,
      "REQ": 5990,
      "_rel_logits": 5991,
      "corresponds": 5992,
      "merges": 5993,
      "merged": 5994,
      "eval_result": 5995,
      "decoder_self_attention_bias": 5996,
      "CategoricalDtype": 5997,
      "edge_": 5998,
      "Attemp": 5999,
      "population": 6000,
      "generator_utils": 6001,
      "196": 6002,
      "Generator": 6003,
      "yields": 6004,
      "greedy": 6005,
      "merge_multi": 6006,
      "_logit": 6007,
      "deleted": 6008,
      "valid_sets": 6009,
      "truncated": 6010,
      "min_timescale": 6011,
      "sqrt_": 6012,
      "sliced": 6013,
      "updated_": 6014,
      "Serializer": 6015,
      "AGE_": 6016,
      "Template": 6017,
      "semanti": 6018,
      "OOV": 6019,
      "is_datetime64tz_dtype": 6020,
      "bracket": 6021,
      "softmax_": 6022,
      "'{}'": 6023,
      "advantage": 6024,
      "scatter": 6025,
      "security_manager": 6026,
      "Concaten": 6027,
      "soft_": 6028,
      "zoom": 6029,
      "whites": 6030,
      "Memory": 6031,
      "434000": 6032,
      "tiguous": 6033,
      "tolerance": 6034,
      "merge_multi_context": 6035,
      "(\\": 6036,
      "/=": 6037,
      "AI": 6038,
      "BLE": 6039,
      "NHWC": 6040,
      "OS": 6041,
      "PY": 6042,
      "Que": 6043,
      "VM": 6044,
      "]\",": 6045,
      "_first": 6046,
      "_default_": 6047,
      "ev": 6048,
      "ever": 6049,
      "fu": 6050,
      "flip": 6051,
      "gy": 6052,
      "rm": 6053,
      "us_": 6054,
      "ual_": 6055,
      "repr": 6056,
      "third": 6057,
      "several": 6058,
      "enc_": 6059,
      "coding": 6060,
      "asof": 6061,
      "noam": 6062,
      "measure": 6063,
      "```": 6064,
      "notna": 6065,
      "abet": 6066,
      "s_id": 6067,
      "objs": 6068,
      "input_size": 6069,
      "time_range": 6070,
      "(\".": 6071,
      "t_name": 6072,
      "file_": 6073,
      "num_tags": 6074,
      "applies": 6075,
      "likelihood": 6076,
      "occurrence": 6077,
      "speci": 6078,
      "c_void": 6079,
      "sum__": 6080,
      "backend": 6081,
      "naive": 6082,
      "processes": 6083,
      "intersection": 6084,
      "n_classes": 6085,
      "prun": 6086,
      "orig_": 6087,
      "gran": 6088,
      "encry": 6089,
      "feature_types": 6090,
      "net_apply": 6091,
      "envs": 6092,
      "_handle": 6093,
      "Numpy": 6094,
      "ription": 6095,
      "raw_": 6096,
      "Unknown": 6097,
      "probab": 6098,
      "push": 6099,
      "prim": 6100,
      "decoder_output": 6101,
      "DatetimeArray": 6102,
      "stored_": 6103,
      "generic": 6104,
      "_scaling": 6105,
      "serializ": 6106,
      "Permission": 6107,
      "linear_": 6108,
      "swap": 6109,
      "nbr": 6110,
      "ABCIndex": 6111,
      "TION": 6112,
      "learning_rate_schedule": 6113,
      "static": 6114,
      "repeats": 6115,
      "Depre": 6116,
      "PandasUDF": 6117,
      "question_tokens": 6118,
      "supplied": 6119,
      "################": 6120,
      "GRU": 6121,
      "replaced": 6122,
      "_multiple": 6123,
      "_eos": 6124,
      "_periods": 6125,
      "chartId": 6126,
      "recognized": 6127,
      "hierarchical": 6128,
      "_mgr_locs": 6129,
      "is_dtype_equal": 6130,
      "c_void_p": 6131,
      "PandasUDFType": 6132,
      "'[": 6133,
      ")[-": 6134,
      "42": 6135,
      "Bunch": 6136,
      "DD": 6137,
      "EM": 6138,
      "Flow": 6139,
      "Gum": 6140,
      "Has": 6141,
      "Is": 6142,
      "Right": 6143,
      "Uses": 6144,
      "[])": 6145,
      "_results": 6146,
      "_sequences": 6147,
      "_maybe_": 6148,
      "_EX": 6149,
      "aa": 6150,
      "aws": 6151,
      "cip": 6152,
      "cifar": 6153,
      "p_": 6154,
      "pret": 6155,
      "rnn": 6156,
      "smo": 6157,
      "sdf": 6158,
      "slow": 6159,
      "spearman": 6160,
      "won": 6161,
      "zones": 6162,
      "secu": 6163,
      "enough": 6164,
      "alty": 6165,
      "legs": 6166,
      "issu": 6167,
      "topi": 6168,
      "loor": 6169,
      "exit": 6170,
      "consecu": 6171,
      "numer": 6172,
      "numexpr": 6173,
      "()}": 6174,
      "()``.": 6175,
      "trs": 6176,
      "',)],": 6177,
      "withReplacement": 6178,
      "set_index": 6179,
      "_sym": 6180,
      "s_to": 6181,
      "get_slice": 6182,
      "input_length": 6183,
      "001": 6184,
      "DataBunch": 6185,
      "num_groups": 6186,
      "_ms": 6187,
      "_reg": 6188,
      "([],": 6189,
      "min_periods": 6190,
      "corpus": 6191,
      "header_": 6192,
      "items_to_": 6193,
      "_infer_": 6194,
      "memory_block_size": 6195,
      "build": 6196,
      "statements": 6197,
      "aster": 6198,
      "query_block_size": 6199,
      "gru": 6200,
      "sync": 6201,
      "syntax": 6202,
      "random_un": 6203,
      "nan_rep": 6204,
      "_hist": 6205,
      "need_flatten": 6206,
      "Cols": 6207,
      "angle": 6208,
      "Models": 6209,
      "globals": 6210,
      "everything": 6211,
      "disabled": 6212,
      "Boolean": 6213,
      "Iterator": 6214,
      "curr_info": 6215,
      "moe_num_experts": 6216,
      "bottleneck_bits": 6217,
      "exception_class": 6218,
      "NOTE": 6219,
      "padded_rewards": 6220,
      "split_heads": 6221,
      "learning_rate_constant": 6222,
      "accepted": 6223,
      "brain_info": 6224,
      "read_csv": 6225,
      "log_probs": 6226,
      "pixels": 6227,
      "Disp": 6228,
      "group_size_dim": 6229,
      "logical_forms": 6230,
      "latents_dense": 6231,
      "is_extension_type": 6232,
      "x_means_hot": 6233,
      "initializer_": 6234,
      "clause": 6235,
      "mesh_shape": 6236,
      "Such": 6237,
      "denomin": 6238,
      "episode_steps": 6239,
      "tag_sequence": 6240,
      "timing_signal": 6241,
      "Gradi": 6242,
      "sensitive": 6243,
      "supported_resource": 6244,
      "agenda_items": 6245,
      "placeholder": 6246,
      "Mapping": 6247,
      "updated_ema": 6248,
      "Gumbel": 6249,
      "random_uniform": 6250,
      "\"/": 6251,
      ",),": 6252,
      ".\\": 6253,
      "26": 6254,
      "ARE": 6255,
      "Hook": 6256,
      "M_": 6257,
      "Merge": 6258,
      "Sty": 6259,
      "X_": 6260,
      "[~": 6261,
      "_one": 6262,
      "_add": 6263,
      "_files": 6264,
      "_classes": 6265,
      "fg": 6266,
      "fav": 6267,
      "fmap": 6268,
      "golds": 6269,
      "h1": 6270,
      "hdf": 6271,
      "ics": 6272,
      "platform": 6273,
      "rates": 6274,
      "rong": 6275,
      "rnn_": 6276,
      "}\\": 6277,
      "in_type": 6278,
      "iness": 6279,
      "attern": 6280,
      "rev": 6281,
      "ensive": 6282,
      "alance": 6283,
      "delay": 6284,
      "isn": 6285,
      "peg": 6286,
      "edit": 6287,
      "divide": 6288,
      "typically": 6289,
      "maint": 6290,
      "memo": 6291,
      "enter": 6292,
      "contiguous": 6293,
      "argmin": 6294,
      "verify": 6295,
      "_slic": 6296,
      "s_and_": 6297,
      "forms": 6298,
      "west": 6299,
      "coming": 6300,
      "output_depth": 6301,
      "attend": 6302,
      "fox": 6303,
      "format_": 6304,
      "get_loc": 6305,
      "mask_2": 6306,
      "ategy": 6307,
      "subplot": 6308,
      "subtract": 6309,
      "encoders": 6310,
      "block_dim": 6311,
      "action_space": 6312,
      "callMLlib": 6313,
      "backward_": 6314,
      "container": 6315,
      "fixed_": 6316,
      "basename": 6317,
      "padding_lengths": 6318,
      "x_left_": 6319,
      "overhead": 6320,
      "embedding_dim": 6321,
      "runs": 6322,
      "sources": 6323,
      "latest": 6324,
      "REUSE": 6325,
      "justify": 6326,
      "_dtypes": 6327,
      "fake": 6328,
      "Proces": 6329,
      "treebank": 6330,
      "produces": 6331,
      "SEP": 6332,
      "autoencoder": 6333,
      "ensure_index": 6334,
      "activation_dtype": 6335,
      "URI": 6336,
      "meta_path": 6337,
      "optimization": 6338,
      "alphabet": 6339,
      "LOG": 6340,
      "aligned": 6341,
      "saves": 6342,
      "utf8": 6343,
      "importance_type": 6344,
      "_perm": 6345,
      "build_": 6346,
      "scheduled_": 6347,
      "_frequency": 6348,
      "quotes": 6349,
      "requires_grad": 6350,
      "ffn_layer": 6351,
      "AUTO_": 6352,
      "updater": 6353,
      "_buckets": 6354,
      "max_area_height": 6355,
      "_blknos": 6356,
      "confidence": 6357,
      "potentially": 6358,
      "_java_obj": 6359,
      "Identity": 6360,
      "ATION_": 6361,
      "targeting_rate": 6362,
      "uniques": 6363,
      "Flatten": 6364,
      "upyter": 6365,
      "callMLlibFunc": 6366,
      "AUTO_REUSE": 6367,
      "'>": 6368,
      ")|": 6369,
      "But": 6370,
      "Event": 6371,
      "GE": 6372,
      "Gaussian": 6373,
      "Gram": 6374,
      "IST": 6375,
      "JVM": 6376,
      "Light": 6377,
      "PRO": 6378,
      "T2": 6379,
      "Ter": 6380,
      "Upd": 6381,
      "[::": 6382,
      "\\\"": 6383,
      "_error": 6384,
      "_cls": 6385,
      "_threshold": 6386,
      "a0": 6387,
      "bb": 6388,
      "dm": 6389,
      "dan": 6390,
      "f2": 6391,
      "fam": 6392,
      "gers": 6393,
      "jobs": 6394,
      "kit": 6395,
      "oids": 6396,
      "px": 6397,
      "ption": 6398,
      "scan": 6399,
      "smoothing": 6400,
      "screen": 6401,
      "tle": 6402,
      "ud_": 6403,
      "lient": 6404,
      "ceil": 6405,
      "param_type": 6406,
      "``<": 6407,
      "``).": 6408,
      "optim": 6409,
      "listlike": 6410,
      "batching": 6411,
      "timezones": 6412,
      "preprocess": 6413,
      "column_": 6414,
      "num_steps": 6415,
      "num_legs": 6416,
      "_folder": 6417,
      "instanti": 6418,
      "ErrorCode": 6419,
      "ferences": 6420,
      "lower_": 6421,
      "_registry": 6422,
      "minutes": 6423,
      "illi": 6424,
      "transc": 6425,
      "c_array": 6426,
      "_run": 6427,
      "new_codes": 6428,
      "backwards": 6429,
      "max_depth": 6430,
      "max_timescale": 6431,
      "ReLU": 6432,
      "scaling": 6433,
      "ffn": 6434,
      "rel_": 6435,
      "frame_stack": 6436,
      "2010": 6437,
      "Decode": 6438,
      "existing_": 6439,
      "printed": 6440,
      "cache_": 6441,
      "sides": 6442,
      "Converter": 6443,
      "remote": 6444,
      "_driver": 6445,
      "predictor": 6446,
      "ref_": 6447,
      "correspondence": 6448,
      "_crop": 6449,
      "Ensure": 6450,
      "named_": 6451,
      "packed": 6452,
      "Adam": 6453,
      "guilla": 6454,
      "ranking": 6455,
      "pickled": 6456,
      "calculation": 6457,
      "ELD": 6458,
      "gbq": 6459,
      "cluster_": 6460,
      "brain_name": 6461,
      "second_": 6462,
      "ACK": 6463,
      "FILE": 6464,
      "tz_convert": 6465,
      "reduced": 6466,
      "LGBMModel": 6467,
      "IntegerType": 6468,
      "_nans": 6469,
      "AttentionType": 6470,
      "Finds": 6471,
      "auxiliary": 6472,
      "latents_discrete": 6473,
      "decoded_ids": 6474,
      "glu": 6475,
      "walks": 6476,
      "Passing": 6477,
      "body_output": 6478,
      "segments": 6479,
      "expanded": 6480,
      "availabilities": 6481,
      "is_bool_dtype": 6482,
      "squared_distance": 6483,
      "4096": 6484,
      "issues": 6485,
      "consecutive": 6486,
      "denominator": 6487,
      "maintain": 6488,
      "frame_stack_size": 6489,
      "-%": 6490,
      ".*": 6491,
      "2vec": 6492,
      "=>": 6493,
      ">.": 6494,
      "Google": 6495,
      "Gateway": 6496,
      "Lang": 6497,
      "Next": 6498,
      "Sq": 6499,
      "Sep": 6500,
      "]},": 6501,
      "_de": 6502,
      "_target": 6503,
      "_arr": 6504,
      "_ST": 6505,
      "_encoder": 6506,
      "_decoder": 6507,
      "ae_": 6508,
      "ctive": 6509,
      "cv2": 6510,
      "fc": 6511,
      "floor": 6512,
      "hum": 6513,
      "ito": 6514,
      "ko": 6515,
      "pg": 6516,
      "say": 6517,
      "ted_": 6518,
      "ving_": 6519,
      "at_": 6520,
      "rend": 6521,
      "release": 6522,
      "stochastic": 6523,
      "atever": 6524,
      "ze_": 6525,
      "data_file": 6526,
      "s_by": 6527,
      "pyarrow": 6528,
      "_big": 6529,
      "num_memory_blocks": 6530,
      "usr": 6531,
      "_fa": 6532,
      "date_format": 6533,
      "row_id": 6534,
      "target_names": 6535,
      "_repr": 6536,
      "compri": 6537,
      "Export": 6538,
      "substr": 6539,
      "substring": 6540,
      "mapped": 6541,
      "c_str": 6542,
      "displa": 6543,
      "finally": 6544,
      "widths": 6545,
      "tempfile": 6546,
      "sign_": 6547,
      "infos": 6548,
      "2011": 6549,
      "Alchemy": 6550,
      "_handler": 6551,
      "needs_": 6552,
      "Tick": 6553,
      "Combin": 6554,
      "resource_type": 6555,
      "_const": 6556,
      "seq_length": 6557,
      "ALL": 6558,
      "marker": 6559,
      "properly": 6560,
      "follows": 6561,
      "output_sequence": 6562,
      "span_start": 6563,
      "caps": 6564,
      "extractall": 6565,
      "constructed": 6566,
      "_log_probs": 6567,
      "assigned": 6568,
      "value_counts": 6569,
      "manager": 6570,
      "sort_index": 6571,
      "BatchNorm": 6572,
      "helper": 6573,
      "ediv": 6574,
      "label_cls": 6575,
      "approximate_": 6576,
      "Serial": 6577,
      "registered": 6578,
      "_packed": 6579,
      "accessors": 6580,
      "truediv": 6581,
      "Convol": 6582,
      "CEP": 6583,
      "real_env": 6584,
      "caching": 6585,
      "occurs": 6586,
      "Weights": 6587,
      "IntervalIndex": 6588,
      "solidate": 6589,
      "templates": 6590,
      "thrown": 6591,
      "hard_attention_k": 6592,
      "max_seq_items": 6593,
      "Vocabulary": 6594,
      "master_": 6595,
      "Experimental": 6596,
      "micro": 6597,
      "recommended": 6598,
      "AWS": 6599,
      "Frequency": 6600,
      "finished_": 6601,
      "Alias": 6602,
      "Filter": 6603,
      "_conll_tag": 6604,
      "ABCIndexClass": 6605,
      "smooth": 6606,
      "gluon": 6607,
      "Language": 6608,
      ">\\": 6609,
      "Bat": 6610,
      "Bar": 6611,
      "BIO": 6612,
      "Could": 6613,
      "Det": 6614,
      "Either": 6615,
      "PLE": 6616,
      "Small": 6617,
      "Ty": 6618,
      "]+": 6619,
      "]')": 6620,
      "_inputs": 6621,
      "_training": 6622,
      "_dense": 6623,
      "_means": 6624,
      "_of_": 6625,
      "ae": 6626,
      "birth": 6627,
      "ee": 6628,
      "gan": 6629,
      "ged_": 6630,
      "nr": 6631,
      "nvi": 6632,
      "pkl": 6633,
      "qdm": 6634,
      "schem": 6635,
      "xoffset": 6636,
      "yles": 6637,
      "yoffset": 6638,
      "allen": 6639,
      "among": 6640,
      "ctr": 6641,
      "likes": 6642,
      "ulari": 6643,
      "retry": 6644,
      "adow": 6645,
      "conn": 6646,
      "console": 6647,
      "type_string": 6648,
      "``[": 6649,
      "``\\\\": 6650,
      "become": 6651,
      "mom": 6652,
      "opname": 6653,
      "_pare": 6654,
      "_print": 6655,
      "vec_": 6656,
      "setattr": 6657,
      "aps": 6658,
      "get_s": 6659,
      "batched": 6660,
      "prep": 6661,
      "------+": 6662,
      "string_types": 6663,
      "columnName": 6664,
      "num_boo": 6665,
      "new_path": 6666,
      "ancel": 6667,
      "sures": 6668,
      "sock": 6669,
      "_margin": 6670,
      "sp_values": 6671,
      "-----------+": 6672,
      "corpu": 6673,
      "validator": 6674,
      "fective": 6675,
      "csr": 6676,
      "tensorflow": 6677,
      "...)": 6678,
      "cept": 6679,
      "grain": 6680,
      "memories": 6681,
      "lineSep": 6682,
      "anything": 6683,
      "filling": 6684,
      "check_": 6685,
      "range_": 6686,
      "{},": 6687,
      "locals": 6688,
      "irs": 6689,
      "encdec": 6690,
      "decodes": 6691,
      "delta_": 6692,
      "tzinfo": 6693,
      "NoSuch": 6694,
      "Fix": 6695,
      "deviation": 6696,
      "_jc": 6697,
      "ARI": 6698,
      "start_lr": 6699,
      "117": 6700,
      "flush": 6701,
      "kv_": 6702,
      "SparseDataFrame": 6703,
      "closest": 6704,
      "Iteration": 6705,
      "cumsum": 6706,
      "flav": 6707,
      "st_round": 6708,
      "_from_object": 6709,
      "delegate": 6710,
      "_unmasked": 6711,
      "clip_grad_norm": 6712,
      "q_filter_width": 6713,
      "padded_observations": 6714,
      "feedforward_": 6715,
      "tokenized_": 6716,
      "_special": 6717,
      "COL": 6718,
      "_lst": 6719,
      "min_itemsize": 6720,
      "_writer": 6721,
      "accept": 6722,
      "superset": 6723,
      "Bucket": 6724,
      "fails": 6725,
      "squared": 6726,
      "SPAC": 6727,
      "visualization": 6728,
      "DenseVector": 6729,
      "cuda_device": 6730,
      "trigger": 6731,
      "orizont": 6732,
      "OfCorr": 6733,
      "trajectory": 6734,
      "is_datetime64_dtype": 6735,
      "sampling_temp": 6736,
      "fallback": 6737,
      "uptRecord": 6738,
      "Linear": 6739,
      "retrieve": 6740,
      "quicksort": 6741,
      "constant_": 6742,
      "parameter_values": 6743,
      "_pairs": 6744,
      "reached": 6745,
      "BigQuery": 6746,
      "function_arn": 6747,
      "policy_and_value_": 6748,
      "integration": 6749,
      "pprint_thing": 6750,
      "whitespace": 6751,
      "LightGBM": 6752,
      "human": 6753,
      "Typically": 6754,
      "allennlp": 6755,
      "columnNameOfCorr": 6756,
      "num_boost_round": 6757,
      "corpus_": 6758,
      "columnNameOfCorruptRecord": 6759,
      "(',": 6760,
      "37": 6761,
      "CV": 6762,
      "GET": 6763,
      "L2": 6764,
      "MEN": 6765,
      "Non": 6766,
      "Null": 6767,
      "Pr": 6768,
      "Stage": 6769,
      "UI": 6770,
      "VQ": 6771,
      "XX": 6772,
      "_table": 6773,
      "_cols": 6774,
      "_search": 6775,
      "_iterator": 6776,
      "_ensure_": 6777,
      "_teach": 6778,
      "br": 6779,
      "catch": 6780,
      "cmap": 6781,
      "ech": 6782,
      "ft": 6783,
      "fnames": 6784,
      "her": 6785,
      "hold": 6786,
      "ill": 6787,
      "ily": 6788,
      "lu": 6789,
      "milli": 6790,
      "nul": 6791,
      "pt_": 6792,
      "ral": 6793,
      "ruid": 6794,
      "ske": 6795,
      "sleep": 6796,
      "vlog": 6797,
      "vq_": 6798,
      "yellow": 6799,
      "zing": 6800,
      "{{": 6801,
      "refox": 6802,
      "aly": 6803,
      "amed": 6804,
      "rois": 6805,
      "lowest": 6806,
      "parsity": 6807,
      "ularity": 6808,
      "figs": 6809,
      "noisy_": 6810,
      "intro": 6811,
      "ship": 6812,
      "_period": 6813,
      "trn": 6814,
      "olves": 6815,
      "))))": 6816,
      "ritic": 6817,
      "defaultParallelism": 6818,
      "whatever": 6819,
      "preprocess_": 6820,
      "pow": 6821,
      "maximize": 6822,
      "num_entities": 6823,
      "vity": 6824,
      "new_blocks": 6825,
      "Errors": 6826,
      "_state_": 6827,
      "')],": 6828,
      "Arg": 6829,
      "targeted": 6830,
      "comps": 6831,
      "namespaces": 6832,
      "is_integer": 6833,
      "explo": 6834,
      "groupBy": 6835,
      "subject": 6836,
      "on_element": 6837,
      "act_size": 6838,
      "actual_": 6839,
      "eval_frequency": 6840,
      "finite": 6841,
      "bution": 6842,
      "univers": 6843,
      "bind": 6844,
      "conv_block": 6845,
      "datetime_format": 6846,
      "aug": 6847,
      "x_means": 6848,
      "addr": 6849,
      "casting": 6850,
      "ponse": 6851,
      "config_file": 6852,
      "partially": 6853,
      "runner": 6854,
      "includes": 6855,
      "encoder_layers": 6856,
      "Response": 6857,
      "logicalId": 6858,
      "opening": 6859,
      "ARN": 6860,
      "_v2": 6861,
      "stats_": 6862,
      "end_lr": 6863,
      "Env": 6864,
      "artesi": 6865,
      "record_": 6866,
      "output_filters": 6867,
      "symbols": 6868,
      "initialModel": 6869,
      "longest": 6870,
      "SQLAlchemy": 6871,
      "sharex": 6872,
      "sharey": 6873,
      "decision": 6874,
      "query_obj": 6875,
      "years": 6876,
      "integer_dtype": 6877,
      "Prepare": 6878,
      "index_axes": 6879,
      "padded_actions": 6880,
      "Will": 6881,
      "randint": 6882,
      "samplingRatio": 6883,
      "hooks": 6884,
      "experience": 6885,
      "MIT": 6886,
      "_split_": 6887,
      "adjacency_matrix": 6888,
      "_script": 6889,
      "Supported": 6890,
      "glish": 6891,
      "shared_embedding": 6892,
      "Unicode": 6893,
      "projection_": 6894,
      "self_att": 6895,
      "Metric": 6896,
      "happens": 6897,
      "satis": 6898,
      "literal": 6899,
      "WebDriver": 6900,
      "rounded": 6901,
      "identifier": 6902,
      "_pretrained_": 6903,
      "granularity": 6904,
      "numerator": 6905,
      "get_slice_json": 6906,
      "Styler": 6907,
      "kv_filter_width": 6908,
      "flavor": 6909,
      "universal_": 6910,
      "artesian": 6911,
      "'')": 6912,
      "(('": 6913,
      ")``,": 6914,
      "AE": 6915,
      "BLA": 6916,
      "Druid": 6917,
      "He": 6918,
      "Lim": 6919,
      "ORD": 6920,
      "PR": 6921,
      "SS_": 6922,
      "Saves": 6923,
      "TT": 6924,
      "Types": 6925,
      "_batch_size": 6926,
      "_actions": 6927,
      "_graph": 6928,
      "_generator": 6929,
      "_engine": 6930,
      "_write_": 6931,
      "b1": 6932,
      "b2": 6933,
      "bn": 6934,
      "eas": 6935,
      "gray": 6936,
      "hor": 6937,
      "jit": 6938,
      "p1": 6939,
      "sk": 6940,
      "ss": 6941,
      "sanitize": 6942,
      "tn": 6943,
      "xp": 6944,
      "xfer_": 6945,
      "z_size": 6946,
      "or_": 6947,
      "algo": 6948,
      "to_sql": 6949,
      "puts": 6950,
      "name2": 6951,
      "idual": 6952,
      "numRows": 6953,
      "data_path": 6954,
      "tfp": 6955,
      "indexer_": 6956,
      "_soft": 6957,
      "_scheme": 6958,
      "aptive": 6959,
      "areas": 6960,
      "riend": 6961,
      "input_mask": 6962,
      "default_value": 6963,
      "(\"%": 6964,
      "ected": 6965,
      "log_softmax": 6966,
      "percent": 6967,
      "path2": 6968,
      "imgs": 6969,
      "([['": 6970,
      "compo": 6971,
      "minute": 6972,
      "mask_1": 6973,
      "is_copy": 6974,
      "expensive": 6975,
      "That": 6976,
      "level_codes": 6977,
      "...],": 6978,
      "weight_dtype": 6979,
      "subprocess": 6980,
      "translation": 6981,
      "first_depth": 6982,
      "na_position": 6983,
      "parsed_": 6984,
      "multiproblem": 6985,
      "Search": 6986,
      "checked": 6987,
      "generative": 6988,
      "last_metrics": 6989,
      "_to_token": 6990,
      "sent_": 6991,
      "doc_path": 6992,
      "Dec": 6993,
      "cache_key": 6994,
      "splitting": 6995,
      "classe": 6996,
      "runtime": 6997,
      "var_list": 6998,
      "Creating": 6999,
      "stacked_": 7000,
      "collect_": 7001,
      "_jsc": 7002,
      "dayfirst": 7003,
      "testing": 7004,
      "encoder_outputs": 7005,
      "numerical": 7006,
      "data_files": 7007,
      "downsample": 7008,
      "_spans": 7009,
      "lrs": 7010,
      "java_stage": 7011,
      "1960": 7012,
      "exclusive": 7013,
      "ampling": 7014,
      "_2d": 7015,
      "yearfirst": 7016,
      "parent_": 7017,
      "force_init": 7018,
      "Application": 7019,
      "Optionally": 7020,
      "aky": 7021,
      "swa_": 7022,
      "average_": 7023,
      "learning_rates": 7024,
      "authoriz": 7025,
      "tokenization": 7026,
      "_checkpoint": 7027,
      "COLU": 7028,
      "acceptable": 7029,
      "Normal": 7030,
      "TEST": 7031,
      "_initialized": 7032,
      "behaviour": 7033,
      "executor": 7034,
      "FIELD": 7035,
      "Records": 7036,
      "algorithms": 7037,
      "_relative_embeddings": 7038,
      "vanilla": 7039,
      "Need": 7040,
      "has_inputs": 7041,
      "dilation_rate": 7042,
      "Pickle": 7043,
      "dashboards": 7044,
      "Overri": 7045,
      "minibatch": 7046,
      "tuning": 7047,
      "Expected": 7048,
      "w3c": 7049,
      "Results": 7050,
      "deserializer": 7051,
      "_parse_datatype": 7052,
      "is_float_dtype": 7053,
      "Charact": 7054,
      "Exists": 7055,
      "soft_em": 7056,
      "_softmax_": 7057,
      "COLUMN": 7058,
      "\"[": 7059,
      ".',": 7060,
      "06": 7061,
      "1b": 7062,
      "44": 7063,
      "47": 7064,
      "Av": 7065,
      "Bound": 7066,
      "Cast": 7067,
      "FR": 7068,
      "Join": 7069,
      "K_": 7070,
      "LM": 7071,
      "Liter": 7072,
      "Location": 7073,
      "NT": 7074,
      "PATH": 7075,
      "Skip": 7076,
      "[((": 7077,
      "_df": 7078,
      "_template": 7079,
      "_vals": 7080,
      "_PO": 7081,
      "_long": 7082,
      "`\"": 7083,
      "bz": 7084,
      "c1": 7085,
      "dp": 7086,
      "eet": 7087,
      "fout": 7088,
      "grow": 7089,
      "hive": 7090,
      "mn": 7091,
      "rkey": 7092,
      "rsqrt_": 7093,
      "wg": 7094,
      "zlib": 7095,
      "errst": 7096,
      "thin": 7097,
      "leans": 7098,
      "is_sparse": 7099,
      "tou": 7100,
      "coef": 7101,
      "parses": 7102,
      "uments": 7103,
      "param_name": 7104,
      "mechan": 7105,
      "strat": 7106,
      "atios": 7107,
      "shor": 7108,
      "shallow": 7109,
      "shake": 7110,
      "sheet": 7111,
      "numCols": 7112,
      "argparse": 7113,
      "col_name": 7114,
      "_ptr": 7115,
      "_sched": 7116,
      "neal": 7117,
      "shaped": 7118,
      "batchSize": 7119,
      "pyplot": 7120,
      "pyxl": 7121,
      "poses": 7122,
      "end_pos": 7123,
      "num_h": 7124,
      "')[": 7125,
      "to_json": 7126,
      "account": 7127,
      "_repeat": 7128,
      "tslibs": 7129,
      "get_label": 7130,
      "min_depth": 7131,
      "losse": 7132,
      "ago": 7133,
      "token_embedding": 7134,
      "iterbi": 7135,
      "='',": 7136,
      "is_timedelta64": 7137,
      "is_integer_dtype": 7138,
      "exp_": 7139,
      "image_fe": 7140,
      "Conne": 7141,
      "y_loc": 7142,
      "backfill": 7143,
      "na_dict": 7144,
      "norms": 7145,
      "check_call": 7146,
      "scaled": 7147,
      "load_": 7148,
      "load_model": 7149,
      "generally": 7150,
      "locales": 7151,
      "trying": 7152,
      "oov": 7153,
      "_dimension": 7154,
      "extra_loss": 7155,
      "Allow": 7156,
      "Altern": 7157,
      "sqlal": 7158,
      "Color": 7159,
      "evaluate_": 7160,
      "slice_": 7161,
      "tests": 7162,
      "resource_properties": 7163,
      "attention_dropout_broadcast_dims": 7164,
      "Keep": 7165,
      "removing": 7166,
      "TOK": 7167,
      "openpyxl": 7168,
      "LED": 7169,
      "failed": 7170,
      "refresh": 7171,
      "start_from": 7172,
      "ignore_": 7173,
      "ignore_index": 7174,
      "_padded_": 7175,
      "stddev": 7176,
      "init_score": 7177,
      "DatasetType": 7178,
      "_string_like": 7179,
      "Loading": 7180,
      "frequent": 7181,
      "q_entropy": 7182,
      "simpl": 7183,
      "interpolate": 7184,
      "efficiency": 7185,
      "PeriodArray": 7186,
      "months": 7187,
      "COD": 7188,
      "buckets": 7189,
      "infer_datetime_format": 7190,
      "IOError": 7191,
      "report_": 7192,
      "controls": 7193,
      "increasing": 7194,
      "Initial": 7195,
      "experiences": 7196,
      "CONV": 7197,
      "appears": 7198,
      "smallest_": 7199,
      "ticks": 7200,
      "UMB": 7201,
      "rdd_": 7202,
      "Lib": 7203,
      "_binary": 7204,
      "LOCAL": 7205,
      "rl_utils": 7206,
      "if_exists": 7207,
      "sinusoids": 7208,
      "_prior": 7209,
      "neg_q_entropy": 7210,
      "deriv": 7211,
      "delimiter": 7212,
      "primiti": 7213,
      "stored_info": 7214,
      "items_to_keep": 7215,
      "T2T": 7216,
      "tokenized_utterance": 7217,
      "nullable": 7218,
      "riendly": 7219,
      "Literal": 7220,
      "errstate": 7221,
      "is_timedelta64_dtype": 7222,
      "\"},": 7223,
      "'',": 7224,
      "58": 7225,
      ":]:": 7226,
      "AV": 7227,
      "Ada": 7228,
      "Bin": 7229,
      "Bod": 7230,
      "Mask": 7231,
      "Missing": 7232,
      "Oper": 7233,
      "Role": 7234,
      "SC": 7235,
      "]*": 7236,
      "_attr": 7237,
      "_sequence": 7238,
      "_gen": 7239,
      "_numeric": 7240,
      "_maybe": 7241,
      "_curr": 7242,
      "_selection": 7243,
      "bg": 7244,
      "bird": 7245,
      "cm": 7246,
      "fd": 7247,
      "fct": 7248,
      "gso": 7249,
      "h5": 7250,
      "jax": 7251,
      "nap": 7252,
      "nunique": 7253,
      "oh": 7254,
      "ore": 7255,
      "por": 7256,
      "past": 7257,
      "pbar": 7258,
      "qs": 7259,
      "vo": 7260,
      "vmin": 7261,
      "vot": 7262,
      "xz": 7263,
      "xml": 7264,
      "inom": 7265,
      "secs": 7266,
      "roz": 7267,
      "chron": 7268,
      "sized": 7269,
      "division": 7270,
      "andard": 7271,
      "unused_": 7272,
      "labeled": 7273,
      "strategy": 7274,
      "atives": 7275,
      "moving_": 7276,
      "op_prop": 7277,
      "_page": 7278,
      "_pts": 7279,
      "tries": 7280,
      "olving": 7281,
      "obtain": 7282,
      "_server": 7283,
      "_small": 7284,
      "s_from_": 7285,
      "s_for_": 7286,
      "props": 7287,
      "batch_index": 7288,
      "batch_dims": 7289,
      "Retrie": 7290,
      "input_file": 7291,
      "Inser": 7292,
      "t_1": 7293,
      "trace": 7294,
      "('/": 7295,
      "_brain": 7296,
      "model_": 7297,
      "num_shards": 7298,
      "axis_desc": 7299,
      "_fact": 7300,
      "_ftrs": 7301,
      "row2": 7302,
      "sp_index": 7303,
      "tok2vec": 7304,
      "get_dummies": 7305,
      "Excel": 7306,
      "ground_": 7307,
      "text2": 7308,
      "is_categorical": 7309,
      "ed_type": 7310,
      "started": 7311,
      "act_type": 7312,
      "c_to_": 7313,
      "plain": 7314,
      "buffer_": 7315,
      "Reset": 7316,
      "binded": 7317,
      "generation": 7318,
      "regard": 7319,
      "regulari": 7320,
      "sqla": 7321,
      "_to_write": 7322,
      "32k": 7323,
      "lambda_function": 7324,
      "_posi": 7325,
      "ArrayType": 7326,
      "123": 7327,
      "collected": 7328,
      "Setting": 7329,
      "plotting": 7330,
      "extend_": 7331,
      "cell_size": 7332,
      "Byte": 7333,
      "DateTime": 7334,
      "http_response": 7335,
      "Resize": 7336,
      "Resources": 7337,
      "TOCOL": 7338,
      "layer_name": 7339,
      "ripts": 7340,
      "Produ": 7341,
      "Unable": 7342,
      "_v1": 7343,
      "end_callback": 7344,
      "English": 7345,
      "eval_group": 7346,
      "productions": 7347,
      "monitor": 7348,
      "however": 7349,
      "java_": 7350,
      "partitionBy": 7351,
      "agent_info": 7352,
      "Points": 7353,
      "effective": 7354,
      "left_side": 7355,
      "learned": 7356,
      "serialize": 7357,
      "relu_dropout": 7358,
      "ATE": 7359,
      "Iterations": 7360,
      "style_dict": 7361,
      "048": 7362,
      "index_select": 7363,
      "AllBrainInfo": 7364,
      "swagger": 7365,
      "descriptor": 7366,
      "min_count": 7367,
      "world_model": 7368,
      "sliding": 7369,
      "Normalize": 7370,
      "RandomRDDs": 7371,
      "first_row": 7372,
      "_asof": 7373,
      "validate_bool_": 7374,
      "right_side": 7375,
      "FIX": 7376,
      "quoting": 7377,
      "preserves": 7378,
      "LGBM_Booster": 7379,
      "completed": 7380,
      "holiday": 7381,
      "triggers": 7382,
      "World": 7383,
      "www": 7384,
      "Control": 7385,
      "Box": 7386,
      "StopIteration": 7387,
      "denotation": 7388,
      "interpreted": 7389,
      "expert_capacity_dim": 7390,
      "scorer": 7391,
      "TION_DE": 7392,
      "received": 7393,
      "_duplicates": 7394,
      "alternative": 7395,
      "Definition": 7396,
      "learning_rate_decay_steps": 7397,
      "propagate": 7398,
      "quarterly": 7399,
      "HEAD": 7400,
      "mergesort": 7401,
      "initializer_gain": 7402,
      "render_": 7403,
      "usr_dir": 7404,
      "Decimal": 7405,
      "Adafactor": 7406,
      "Body": 7407,
      "inomial": 7408,
      "axis_descr": 7409,
      "validate_bool_kwarg": 7410,
      ")})": 7411,
      "*.": 7412,
      ".'": 7413,
      "/%": 7414,
      "93": 7415,
      "Ap": 7416,
      "Ber": 7417,
      "Cell": 7418,
      "CTOR": 7419,
      "Fn": 7420,
      "GD": 7421,
      "GAN": 7422,
      "HO": 7423,
      "Hparams": 7424,
      "Hyper": 7425,
      "Lef": 7426,
      "Now": 7427,
      "PIL": 7428,
      "Space": 7429,
      "VE_": 7430,
      "Zip": 7431,
      "[{\"": 7432,
      "\\'": 7433,
      "_val": 7434,
      "_embed": 7435,
      "_logging": 7436,
      "_all_": 7437,
      "_similarity": 7438,
      "bboxes": 7439,
      "fpath": 7440,
      "fps": 7441,
      "had": 7442,
      "horizont": 7443,
      "ick": 7444,
      "ls": 7445,
      "lan": 7446,
      "lhs": 7447,
      "mit": 7448,
      "rt": 7449,
      "sal": 7450,
      "sam": 7451,
      "scheme": 7452,
      "uled": 7453,
      "viterbi": 7454,
      "}')": 7455,
      "really": 7456,
      "recurrence": 7457,
      "orch": 7458,
      "asfreq": 7459,
      "assign_": 7460,
      "located": 7461,
      "rase": 7462,
      "dicates": 7463,
      "adaf": 7464,
      "extern": 7465,
      "exceed": 7466,
      "ckpt_": 7467,
      "shutil": 7468,
      "num_splits": 7469,
      "num_perspec": 7470,
      "databases": 7471,
      "_ph": 7472,
      "setter": 7473,
      "_support": 7474,
      "_spaces": 7475,
      "values_from_object": 7476,
      "s_idxs": 7477,
      "prox": 7478,
      "program": 7479,
      "er_func": 7480,
      "input_data": 7481,
      "labels_to_": 7482,
      "num_valid": 7483,
      "output_size": 7484,
      "output_path": 7485,
      "applic": 7486,
      "_many": 7487,
      "tokval": 7488,
      "get_values": 7489,
      "is_unique": 7490,
      "Then": 7491,
      "tensor2": 7492,
      "pad_to": 7493,
      "_invalid_": 7494,
      "Conv2": 7495,
      "communi": 7496,
      "---------": 7497,
      "energy": 7498,
      "_ratio": 7499,
      "readable": 7500,
      "multirow": 7501,
      "union_": 7502,
      "general": 7503,
      "locally": 7504,
      "query_id": 7505,
      "_to_archive": 7506,
      "common_hparams": 7507,
      "sense": 7508,
      "pho": 7509,
      "counting": 7510,
      "select_": 7511,
      "Dele": 7512,
      "RowMatrix": 7513,
      "Collect": 7514,
      "from_dttm": 7515,
      "Multip": 7516,
      "Distri": 7517,
      "set_discrete": 7518,
      "take_action": 7519,
      "latent_loss_": 7520,
      "skipped": 7521,
      "shows": 7522,
      "lesson": 7523,
      "NDFrame": 7524,
      "click": 7525,
      "gen_mode": 7526,
      "blank": 7527,
      "hashable": 7528,
      "expecting": 7529,
      "plan": 7530,
      "deprecation": 7531,
      "ABLE": 7532,
      "combined_": 7533,
      "bitwise": 7534,
      "sparse_": 7535,
      "force_": 7536,
      "CH_": 7537,
      "Assign": 7538,
      "expert_utils": 7539,
      "final_states": 7540,
      "internal_": 7541,
      "1e9": 7542,
      "_units": 7543,
      "border_": 7544,
      "Timestamps": 7545,
      "quantized": 7546,
      "pipe_names": 7547,
      "valid_actions": 7548,
      "authorizer": 7549,
      "brew": 7550,
      "deepcopy": 7551,
      "Change": 7552,
      "Inputs": 7553,
      "beta2": 7554,
      "topk_seq": 7555,
      "supervi": 7556,
      "allow_copy": 7557,
      "SIZ": 7558,
      "TextEncoder": 7559,
      "doc_string": 7560,
      "archive_file": 7561,
      "storageLevel": 7562,
      "intrinsics": 7563,
      "Intent": 7564,
      "dest_path": 7565,
      "Auto": 7566,
      "ptr_data": 7567,
      "experiment": 7568,
      "_pickle": 7569,
      "cycle_len": 7570,
      "opt_state": 7571,
      "tabular": 7572,
      "attempts": 7573,
      "HDFStore": 7574,
      "action_sequence": 7575,
      "rlmb": 7576,
      "mini_batch": 7577,
      "inferred_type": 7578,
      "Additionally": 7579,
      "panels": 7580,
      "_backward_": 7581,
      "Metrics": 7582,
      "bounding": 7583,
      "_monitor": 7584,
      "leading": 7585,
      "_shallow_copy": 7586,
      "Authorizer": 7587,
      "Determin": 7588,
      "routine": 7589,
      "PyTorch": 7590,
      "Concatenate": 7591,
      "nbr_steps": 7592,
      "DDL": 7593,
      "_history": 7594,
      "[::-": 7595,
      "Convolution": 7596,
      "sqlalchemy": 7597,
      "TOKEN": 7598,
      "Left": 7599,
      "adafactor": 7600,
      "num_perspectives": 7601,
      "Conv2D": 7602,
      ")*": 7603,
      ".:": 7604,
      "1d_": 7605,
      "40000": 7606,
      "AND": 7607,
      "Bot": 7608,
      "C1": 7609,
      "CL": 7610,
      "DST": 7611,
      "Mix": 7612,
      "Named": 7613,
      "RM": 7614,
      "Rel": 7615,
      "Simp": 7616,
      "TAIL": 7617,
      "Zer": 7618,
      "](": 7619,
      "_js": 7620,
      "_sort": 7621,
      "_images": 7622,
      "_color": 7623,
      "_beam_size": 7624,
      "_objective": 7625,
      "_locations": 7626,
      "_method_": 7627,
      "_gateway": 7628,
      "`'": 7629,
      "blos": 7630,
      "critic": 7631,
      "cartesian": 7632,
      "dle": 7633,
      "fw": 7634,
      "fal": 7635,
      "hess": 7636,
      "ich": 7637,
      "lamb": 7638,
      "lm_": 7639,
      "lama": 7640,
      "mconf": 7641,
      "n_in": 7642,
      "n_features": 7643,
      "pub": 7644,
      "rand_": 7645,
      "ruler": 7646,
      "tt": 7647,
      "ugin": 7648,
      "y1": 7649,
      "}/": 7650,
      "atom": 7651,
      "setitem": 7652,
      "ardi": 7653,
      "styles": 7654,
      "ani": 7655,
      "any_": 7656,
      "isp": 7657,
      "\"\".": 7658,
      "etag": 7659,
      "uman_": 7660,
      "valier": 7661,
      "lits": 7662,
      "raising": 7663,
      "selves": 7664,
      "diet": 7665,
      "iters": 7666,
      "iter_": 7667,
      "lack": 7668,
      "exe": 7669,
      "stration": 7670,
      "mp3": 7671,
      "_ser": 7672,
      "_spe": 7673,
      "_sdf": 7674,
      "tack": 7675,
      "preprocessing": 7676,
      "preprocessed": 7677,
      "===": 7678,
      "Database": 7679,
      "Parser": 7680,
      "df3": 7681,
      "functionality": 7682,
      "new_mgr_locs": 7683,
      "_f1": 7684,
      "raise_missing": 7685,
      "orize": 7686,
      "TensorProto": 7687,
      "_remove": 7688,
      "([(\"": 7689,
      "get_indexer": 7690,
      "tokens_to_": 7691,
      "creation": 7692,
      "_inclu": 7693,
      "illed": 7694,
      "step_s": 7695,
      "otes": 7696,
      "action_mask": 7697,
      "__r": 7698,
      "eval_name": 7699,
      "widget": 7700,
      "parse_h": 7701,
      "unix": 7702,
      "learn_": 7703,
      "n_images": 7704,
      "{}]": 7705,
      "join_units": 7706,
      "address": 7707,
      "limits": 7708,
      "initial_": 7709,
      "senti": 7710,
      "configure": 7711,
      "documents": 7712,
      "Directory": 7713,
      "slice_id": 7714,
      "ST_P": 7715,
      "_jrdd_": 7716,
      "_conf": 7717,
      "RED": 7718,
      "cloud_": 7719,
      "window_size": 7720,
      "1000000": 7721,
      "latent_": 7722,
      "_buffer_": 7723,
      "Proxy": 7724,
      "Unit": 7725,
      "chunk_size": 7726,
      "constrain": 7727,
      "Encoding": 7728,
      "LASS_": 7729,
      "relativedelta": 7730,
      "symbols_to_": 7731,
      "dttm_": 7732,
      "convert_dates": 7733,
      "scope_prefix": 7734,
      "StringLength": 7735,
      "SEM": 7736,
      "transpose_b": 7737,
      "dev1": 7738,
      "dev2": 7739,
      "merge_asof": 7740,
      "Append": 7741,
      "Applies": 7742,
      "goes": 7743,
      "parallel_": 7744,
      "deletion": 7745,
      "internals": 7746,
      "longtable": 7747,
      "bottleneck_size": 7748,
      "bottleneck_kind": 7749,
      "suffixes": 7750,
      "factors": 7751,
      "necessarily": 7752,
      "footer": 7753,
      "algos": 7754,
      "PED_": 7755,
      "nested_": 7756,
      "fractions": 7757,
      "targets_bottom": 7758,
      "_final": 7759,
      "+---+------+": 7760,
      "invocation": 7761,
      "logits_fn": 7762,
      "directional": 7763,
      "--------------------------------": 7764,
      "orientation": 7765,
      "pred_leaf": 7766,
      "consisting": 7767,
      "Serialize": 7768,
      "_matrices": 7769,
      "next_frame_b": 7770,
      "Universal": 7771,
      "_processor": 7772,
      "zeros_like": 7773,
      "Like": 7774,
      "unmasked_rel_logits": 7775,
      "template_": 7776,
      "simulated": 7777,
      "simulated_": 7778,
      "tbwriter": 7779,
      "described": 7780,
      "Classes": 7781,
      "cumulative_rewards": 7782,
      "MSFT": 7783,
      "STRING": 7784,
      "arithmetic": 7785,
      "IGNORE_EX": 7786,
      "_convert_to_vector": 7787,
      "Activation": 7788,
      "Aggregate": 7789,
      "Dummy": 7790,
      "Dashboard": 7791,
      "Builds": 7792,
      "Attempt": 7793,
      "Queue": 7794,
      "named_outputs": 7795,
      "comprised": 7796,
      "CEPTION_DE": 7797,
      "Argument": 7798,
      "Limit": 7799,
      "generative_model": 7800,
      "collect_named_outputs": 7801,
      "Override": 7802,
      "Character": 7803,
      "image_feat": 7804,
      "_brain_info": 7805,
      "Determines": 7806,
      "falcon": 7807,
      "parse_human_": 7808,
      "_jrdd_deserializer": 7809,
      "symbols_to_logits_fn": 7810,
      "IGNORE_EXCEPTION_DE": 7811,
      "IGNORE_EXCEPTION_DETAIL": 7812,
      "\"*": 7813,
      "'\"": 7814,
      ")`.": 7815,
      "46": 7816,
      "5000": 7817,
      "88": 7818,
      ":**": 7819,
      "=[\"": 7820,
      "Crop": 7821,
      "Cross": 7822,
      "Dot": 7823,
      "Draw": 7824,
      "GOO": 7825,
      "IPython": 7826,
      "Makes": 7827,
      "OB": 7828,
      "Task": 7829,
      "Tag": 7830,
      "Tiny": 7831,
      "UDA": 7832,
      "XG": 7833,
      "YM": 7834,
      "_3": 7835,
      "_cor": 7836,
      "_categories": 7837,
      "_fields": 7838,
      "_entry": 7839,
      "_parallelism": 7840,
      "`-": 7841,
      "a_start": 7842,
      "bfill": 7843,
      "cam": 7844,
      "dta": 7845,
      "ein": 7846,
      "lt": 7847,
      "nor": 7848,
      "ned": 7849,
      "rid": 7850,
      "rating": 7851,
      "vmax": 7852,
      "v_string_like": 7853,
      "ynam": 7854,
      "z4": 7855,
      "revision": 7856,
      "orpho": 7857,
      "arti": 7858,
      "arcs": 7859,
      "story": 7860,
      "stype": 7861,
      "deci": 7862,
      "tice": 7863,
      "urations": 7864,
      "val_b": 7865,
      "lity": 7866,
      "dic": 7867,
      "unct": 7868,
      "unfit": 7869,
      "param_": 7870,
      "param_string": 7871,
      "exits": 7872,
      "str_": 7873,
      "motion": 7874,
      "params_file": 7875,
      "quent": 7876,
      "d_ff": 7877,
      "_source": 7878,
      "need_": 7879,
      "clr": 7880,
      "clone": 7881,
      "rier": 7882,
      "input_type": 7883,
      "white": 7884,
      "keys_to_": 7885,
      "trast": 7886,
      "column_format": 7887,
      "('\\\\": 7888,
      "logy": 7889,
      "length_": 7890,
      "comma": 7891,
      "np_": 7892,
      "num_timescales": 7893,
      "append_": 7894,
      "datetimes": 7895,
      "_mult": 7896,
      "denorm": 7897,
      "orized": 7898,
      "_rev": 7899,
      "_reset_": 7900,
      "dedup": 7901,
      "mask_right": 7902,
      "grouping": 7903,
      "_inner": 7904,
      "submit": 7905,
      "translated": 7906,
      "timet": 7907,
      "various": 7908,
      "memory_size": 7909,
      "booleans": 7910,
      "_projs": 7911,
      "tempFile": 7912,
      "Rev": 7913,
      "table_names": 7914,
      "meaning": 7915,
      "last_loss": 7916,
      "non_padded_": 7917,
      "over_": 7918,
      "queryName": 7919,
      "allowing": 7920,
      "sortorder": 7921,
      "signals": 7922,
      "2012": 7923,
      "[:]": 7924,
      "cache_dir": 7925,
      "single_conv": 7926,
      "beam_width": 7927,
      "from_arrays": 7928,
      "from_tuples": 7929,
      "operate": 7930,
      "multiplic": 7931,
      "]]]": 7932,
      "NumPartitions": 7933,
      "_jreader": 7934,
      "equation": 7935,
      "layer_cache": 7936,
      "layer_opt": 7937,
      "Keyword": 7938,
      "data_shapes": 7939,
      "tmp_out": 7940,
      "refs": 7941,
      "_cla": 7942,
      "ID_": 7943,
      "IDs": 7944,
      "wraps": 7945,
      "cia": 7946,
      "Environ": 7947,
      "Define": 7948,
      "searchsorted": 7949,
      "include_": 7950,
      "SparkSession": 7951,
      "StringIO": 7952,
      "caption": 7953,
      "capabilities": 7954,
      "langu": 7955,
      "continuous": 7956,
      "dev_": 7957,
      "dirs": 7958,
      "maybe_convert_": 7959,
      "estimate": 7960,
      "infers": 7961,
      "Iterate": 7962,
      "looks": 7963,
      "clipped": 7964,
      "calculating": 7965,
      "active_conll_tag": 7966,
      "reserved_": 7967,
      "Chan": 7968,
      "shifted_": 7969,
      "\"%(": 7970,
      "area_key": 7971,
      "saving": 7972,
      "Reads": 7973,
      "rename_axis": 7974,
      "ExtensionDtype": 7975,
      "Classifier": 7976,
      "time_shift": 7977,
      "updating": 7978,
      "SPAR": 7979,
      "fmt_": 7980,
      "_policy": 7981,
      "DICT": 7982,
      "access_": 7983,
      "spatial_": 7984,
      "GroupBy": 7985,
      "Regression": 7986,
      "weekday": 7987,
      "vars_3d": 7988,
      "ieee": 7989,
      "_multiplier": 7990,
      "ItemList": 7991,
      "TreeNode": 7992,
      "Does": 7993,
      "permissions": 7994,
      "convention": 7995,
      "CASE": 7996,
      "legacy": 7997,
      "parsers": 7998,
      "Minimum": 7999
    },
    "merges": [
      [
        "i",
        "n"
      ],
      [
        "a",
        "t"
      ],
      [
        "e",
        "r"
      ],
      [
        "o",
        "n"
      ],
      [
        "r",
        "e"
      ],
      [
        "t",
        "h"
      ],
      [
        "o",
        "r"
      ],
      [
        "s",
        "e"
      ],
      [
        "a",
        "r"
      ],
      [
        "e",
        "n"
      ],
      [
        "a",
        "l"
      ],
      [
        "s",
        "t"
      ],
      [
        "d",
        "e"
      ],
      [
        "-",
        "-"
      ],
      [
        "a",
        "m"
      ],
      [
        "a",
        "n"
      ],
      [
        "e",
        "s"
      ],
      [
        "t",
        "i"
      ],
      [
        "l",
        "e"
      ],
      [
        "th",
        "e"
      ],
      [
        "i",
        "s"
      ],
      [
        "t",
        "o"
      ],
      [
        "in",
        "g"
      ],
      [
        "c",
        "o"
      ],
      [
        "u",
        "r"
      ],
      [
        "p",
        "e"
      ],
      [
        "\"",
        "\""
      ],
      [
        "e",
        "t"
      ],
      [
        "r",
        "o"
      ],
      [
        "c",
        "h"
      ],
      [
        "i",
        "f"
      ],
      [
        "a",
        "s"
      ],
      [
        "e",
        "d"
      ],
      [
        "l",
        "o"
      ],
      [
        "p",
        "ar"
      ],
      [
        "u",
        "m"
      ],
      [
        "u",
        "t"
      ],
      [
        "ti",
        "on"
      ],
      [
        "o",
        "f"
      ],
      [
        "f",
        "or"
      ],
      [
        "--",
        "--"
      ],
      [
        "s",
        "i"
      ],
      [
        "v",
        "al"
      ],
      [
        "c",
        "t"
      ],
      [
        "l",
        "i"
      ],
      [
        "c",
        "e"
      ],
      [
        "ur",
        "n"
      ],
      [
        "r",
        "a"
      ],
      [
        "se",
        "l"
      ],
      [
        "sel",
        "f"
      ],
      [
        "u",
        "l"
      ],
      [
        "e",
        "l"
      ],
      [
        "am",
        "e"
      ],
      [
        "d",
        "i"
      ],
      [
        "t",
        "y"
      ],
      [
        "an",
        "d"
      ],
      [
        "u",
        "n"
      ],
      [
        "u",
        "e"
      ],
      [
        "par",
        "am"
      ],
      [
        "at",
        "e"
      ],
      [
        ")",
        ":"
      ],
      [
        "i",
        "t"
      ],
      [
        "re",
        "t"
      ],
      [
        "a",
        "d"
      ],
      [
        "f",
        "i"
      ],
      [
        "l",
        "a"
      ],
      [
        "e",
        "x"
      ],
      [
        "at",
        "a"
      ],
      [
        "de",
        "f"
      ],
      [
        "ret",
        "urn"
      ],
      [
        "on",
        "e"
      ],
      [
        "w",
        "i"
      ],
      [
        "\"\"",
        "\""
      ],
      [
        "m",
        "a"
      ],
      [
        ">",
        ">"
      ],
      [
        "n",
        "o"
      ],
      [
        "m",
        "e"
      ],
      [
        "en",
        "t"
      ],
      [
        "c",
        "on"
      ],
      [
        "re",
        "s"
      ],
      [
        "st",
        "r"
      ],
      [
        "at",
        "i"
      ],
      [
        "ty",
        "pe"
      ],
      [
        "in",
        "t"
      ],
      [
        "`",
        "`"
      ],
      [
        "p",
        "ut"
      ],
      [
        "N",
        "one"
      ],
      [
        "n",
        "ame"
      ],
      [
        "k",
        "e"
      ],
      [
        "b",
        "e"
      ],
      [
        "i",
        "d"
      ],
      [
        "z",
        "e"
      ],
      [
        "c",
        "k"
      ],
      [
        "m",
        "o"
      ],
      [
        "s",
        "h"
      ],
      [
        "ul",
        "t"
      ],
      [
        "param",
        "s"
      ],
      [
        "n",
        "um"
      ],
      [
        "de",
        "x"
      ],
      [
        "c",
        "tion"
      ],
      [
        "d",
        "ata"
      ],
      [
        "h",
        "e"
      ],
      [
        "ar",
        "g"
      ],
      [
        "er",
        "s"
      ],
      [
        "co",
        "l"
      ],
      [
        "no",
        "t"
      ],
      [
        "u",
        "p"
      ],
      [
        "ati",
        "on"
      ],
      [
        "a",
        "b"
      ],
      [
        "l",
        "en"
      ],
      [
        "o",
        "p"
      ],
      [
        "g",
        "e"
      ],
      [
        "(",
        ")"
      ],
      [
        "v",
        "er"
      ],
      [
        "i",
        "g"
      ],
      [
        "si",
        "ze"
      ],
      [
        "c",
        "al"
      ],
      [
        "_",
        "p"
      ],
      [
        "m",
        "p"
      ],
      [
        "t",
        "r"
      ],
      [
        "'",
        ","
      ],
      [
        "o",
        "ut"
      ],
      [
        "v",
        "e"
      ],
      [
        "wi",
        "th"
      ],
      [
        "h",
        "params"
      ],
      [
        "o",
        "l"
      ],
      [
        "val",
        "u"
      ],
      [
        "o",
        "b"
      ],
      [
        "at",
        "ch"
      ],
      [
        "se",
        "t"
      ],
      [
        "t",
        "en"
      ],
      [
        "q",
        "u"
      ],
      [
        "d",
        "_"
      ],
      [
        "t",
        "f"
      ],
      [
        ")",
        ")"
      ],
      [
        "in",
        "dex"
      ],
      [
        "s",
        "or"
      ],
      [
        "a",
        "pe"
      ],
      [
        "_",
        "s"
      ],
      [
        "valu",
        "es"
      ],
      [
        "li",
        "st"
      ],
      [
        "b",
        "o"
      ],
      [
        "n",
        "e"
      ],
      [
        ">>",
        ">"
      ],
      [
        "ra",
        "y"
      ],
      [
        "val",
        "ue"
      ],
      [
        "h",
        "t"
      ],
      [
        "s",
        "_"
      ],
      [
        "c",
        "es"
      ],
      [
        "a",
        "p"
      ],
      [
        "ob",
        "j"
      ],
      [
        "l",
        "l"
      ],
      [
        "u",
        "se"
      ],
      [
        "for",
        "m"
      ],
      [
        "l",
        "y"
      ],
      [
        "p",
        "ro"
      ],
      [
        "er",
        "i"
      ],
      [
        "g",
        "et"
      ],
      [
        "de",
        "l"
      ],
      [
        "w",
        "e"
      ],
      [
        "e",
        "p"
      ],
      [
        "c",
        "l"
      ],
      [
        "a",
        "ult"
      ],
      [
        ")",
        ","
      ],
      [
        "sh",
        "ape"
      ],
      [
        "a",
        "x"
      ],
      [
        "d",
        "type"
      ],
      [
        "ro",
        "m"
      ],
      [
        "er",
        "_"
      ],
      [
        "at",
        "h"
      ],
      [
        "ar",
        "ray"
      ],
      [
        "b",
        "atch"
      ],
      [
        "R",
        "et"
      ],
      [
        "f",
        "rom"
      ],
      [
        "Ret",
        "urn"
      ],
      [
        ".",
        "."
      ],
      [
        "f",
        "un"
      ],
      [
        "a",
        "re"
      ],
      [
        "r",
        "i"
      ],
      [
        "_",
        "size"
      ],
      [
        "d",
        "o"
      ],
      [
        "in",
        "put"
      ],
      [
        "def",
        "ault"
      ],
      [
        "ti",
        "me"
      ],
      [
        "d",
        "ing"
      ],
      [
        "um",
        "n"
      ],
      [
        "T",
        "r"
      ],
      [
        "t",
        "a"
      ],
      [
        "la",
        "y"
      ],
      [
        "w",
        "h"
      ],
      [
        "(",
        "\""
      ],
      [
        "ke",
        "y"
      ],
      [
        "ig",
        "ht"
      ],
      [
        "\"",
        ","
      ],
      [
        "I",
        "n"
      ],
      [
        "]",
        ","
      ],
      [
        "e",
        "ct"
      ],
      [
        "p",
        "re"
      ],
      [
        "----",
        "--"
      ],
      [
        "si",
        "on"
      ],
      [
        "t",
        "_"
      ],
      [
        "p",
        "y"
      ],
      [
        "t",
        "ra"
      ],
      [
        "la",
        "b"
      ],
      [
        "th",
        "er"
      ],
      [
        "str",
        "ing"
      ],
      [
        "col",
        "umn"
      ],
      [
        "Tr",
        "ue"
      ],
      [
        "am",
        "p"
      ],
      [
        "m",
        "ent"
      ],
      [
        "d",
        "s"
      ],
      [
        "as",
        "s"
      ],
      [
        "p",
        "o"
      ],
      [
        "0",
        "0"
      ],
      [
        "Return",
        "s"
      ],
      [
        "r",
        "ame"
      ],
      [
        "ab",
        "le"
      ],
      [
        "l",
        "es"
      ],
      [
        "r",
        "or"
      ],
      [
        "=",
        "="
      ],
      [
        "al",
        "se"
      ],
      [
        "(",
        "'"
      ],
      [
        "]",
        ")"
      ],
      [
        "g",
        "th"
      ],
      [
        "e",
        "m"
      ],
      [
        "T",
        "he"
      ],
      [
        "t",
        "er"
      ],
      [
        "lo",
        "g"
      ],
      [
        "F",
        "alse"
      ],
      [
        "_",
        "di"
      ],
      [
        "en",
        "d"
      ],
      [
        "p",
        "er"
      ],
      [
        "D",
        "ata"
      ],
      [
        "c",
        "a"
      ],
      [
        "len",
        "gth"
      ],
      [
        "_",
        "b"
      ],
      [
        "mo",
        "del"
      ],
      [
        "th",
        "at"
      ],
      [
        ")",
        "."
      ],
      [
        "res",
        "ult"
      ],
      [
        "el",
        "se"
      ],
      [
        "co",
        "m"
      ],
      [
        "d",
        "er"
      ],
      [
        "n",
        "p"
      ],
      [
        "fi",
        "le"
      ],
      [
        "al",
        "l"
      ],
      [
        "ma",
        "x"
      ],
      [
        "lab",
        "el"
      ],
      [
        "P",
        "ar"
      ],
      [
        "obj",
        "ect"
      ],
      [
        "num",
        "_"
      ],
      [
        "et",
        "ers"
      ],
      [
        "v",
        "i"
      ],
      [
        "ax",
        "is"
      ],
      [
        "out",
        "put"
      ],
      [
        "d",
        "f"
      ],
      [
        "b",
        "y"
      ],
      [
        "fun",
        "ction"
      ],
      [
        "t",
        "e"
      ],
      [
        "ne",
        "w"
      ],
      [
        "i",
        "se"
      ],
      [
        "u",
        "s"
      ],
      [
        "_",
        "f"
      ],
      [
        "an",
        "s"
      ],
      [
        "in",
        "st"
      ],
      [
        "as",
        "k"
      ],
      [
        "b",
        "a"
      ],
      [
        "ap",
        "p"
      ],
      [
        "an",
        "ce"
      ],
      [
        "s",
        "u"
      ],
      [
        "arg",
        "s"
      ],
      [
        "s",
        "o"
      ],
      [
        "al",
        "i"
      ],
      [
        "ar",
        "y"
      ],
      [
        "I",
        "f"
      ],
      [
        "co",
        "de"
      ],
      [
        "ch",
        "e"
      ],
      [
        "eri",
        "es"
      ],
      [
        "r",
        "ror"
      ],
      [
        "E",
        "rror"
      ],
      [
        "_",
        "st"
      ],
      [
        "at",
        "ten"
      ],
      [
        "'",
        ")"
      ],
      [
        "tra",
        "in"
      ],
      [
        "Data",
        "F"
      ],
      [
        "f",
        "o"
      ],
      [
        "th",
        "is"
      ],
      [
        "p",
        "ath"
      ],
      [
        "DataF",
        "rame"
      ],
      [
        "lo",
        "ck"
      ],
      [
        "d",
        "ate"
      ],
      [
        "am",
        "es"
      ],
      [
        "ex",
        "t"
      ],
      [
        "Par",
        "am"
      ],
      [
        "wi",
        "ll"
      ],
      [
        "ro",
        "w"
      ],
      [
        "_",
        "m"
      ],
      [
        "or",
        "t"
      ],
      [
        "i",
        "st"
      ],
      [
        "[",
        "'"
      ],
      [
        "form",
        "at"
      ],
      [
        "lo",
        "at"
      ],
      [
        "A",
        "r"
      ],
      [
        "d",
        "u"
      ],
      [
        "t",
        "arg"
      ],
      [
        "d",
        "en"
      ],
      [
        "tion",
        "al"
      ],
      [
        "c",
        "at"
      ],
      [
        "atten",
        "tion"
      ],
      [
        "i",
        "ma"
      ],
      [
        "to",
        "_"
      ],
      [
        "a",
        "ge"
      ],
      [
        "c",
        "ur"
      ],
      [
        "\"",
        ")"
      ],
      [
        "i",
        "m"
      ],
      [
        "targ",
        "et"
      ],
      [
        "s",
        "p"
      ],
      [
        "ra",
        "ise"
      ],
      [
        "or",
        "i"
      ],
      [
        "di",
        "ct"
      ],
      [
        "or",
        "y"
      ],
      [
        "ar",
        "i"
      ],
      [
        "f",
        "er"
      ],
      [
        "in",
        "e"
      ],
      [
        "y",
        "pe"
      ],
      [
        "en",
        "ce"
      ],
      [
        "_",
        "name"
      ],
      [
        "a",
        "c"
      ],
      [
        "lo",
        "w"
      ],
      [
        "T",
        "en"
      ],
      [
        "o",
        "d"
      ],
      [
        "Ten",
        "sor"
      ],
      [
        "In",
        "dex"
      ],
      [
        "a",
        "ch"
      ],
      [
        "g",
        "s"
      ],
      [
        "----",
        "------"
      ],
      [
        "b",
        "er"
      ],
      [
        "n",
        "t"
      ],
      [
        "v",
        "el"
      ],
      [
        "to",
        "k"
      ],
      [
        "o",
        "m"
      ],
      [
        "_",
        "re"
      ],
      [
        "S",
        "eries"
      ],
      [
        "le",
        "ment"
      ],
      [
        "w",
        "ar"
      ],
      [
        "Param",
        "eters"
      ],
      [
        "'",
        ":"
      ],
      [
        "(",
        "["
      ],
      [
        "t",
        "s"
      ],
      [
        "u",
        "re"
      ],
      [
        "pe",
        "c"
      ],
      [
        "inst",
        "ance"
      ],
      [
        "get",
        "_"
      ],
      [
        "at",
        "es"
      ],
      [
        "u",
        "st"
      ],
      [
        "co",
        "mp"
      ],
      [
        "ul",
        "ti"
      ],
      [
        "m",
        "in"
      ],
      [
        "lo",
        "s"
      ],
      [
        "column",
        "s"
      ],
      [
        "E",
        "x"
      ],
      [
        "de",
        "d"
      ],
      [
        "c",
        "an"
      ],
      [
        "c",
        "or"
      ],
      [
        "n",
        "ames"
      ],
      [
        "w",
        "or"
      ],
      [
        "\"",
        ":"
      ],
      [
        "se",
        "d"
      ],
      [
        "f",
        "loat"
      ],
      [
        "a",
        "g"
      ],
      [
        "g",
        "ro"
      ],
      [
        "o",
        "ur"
      ],
      [
        "tok",
        "en"
      ],
      [
        "m",
        "ask"
      ],
      [
        "de",
        "p"
      ],
      [
        "it",
        "er"
      ],
      [
        "val",
        "id"
      ],
      [
        "k",
        "w"
      ],
      [
        "f",
        "e"
      ],
      [
        "t",
        "ext"
      ],
      [
        "se",
        "s"
      ],
      [
        "he",
        "ad"
      ],
      [
        "p",
        "es"
      ],
      [
        "a",
        "ve"
      ],
      [
        "me",
        "th"
      ],
      [
        "lay",
        "ers"
      ],
      [
        "=",
        "'"
      ],
      [
        "is",
        "_"
      ],
      [
        "ro",
        "p"
      ],
      [
        "li",
        "ke"
      ],
      [
        "o",
        "w"
      ],
      [
        "or",
        "m"
      ],
      [
        "ed",
        "_"
      ],
      [
        "z",
        "er"
      ],
      [
        "c",
        "s"
      ],
      [
        "o",
        "ther"
      ],
      [
        "ex",
        "p"
      ],
      [
        "wh",
        "i"
      ],
      [
        "e",
        "ach"
      ],
      [
        "T",
        "h"
      ],
      [
        "le",
        "vel"
      ],
      [
        "o",
        "c"
      ],
      [
        "ten",
        "sor"
      ],
      [
        "se",
        "qu"
      ],
      [
        "at",
        "or"
      ],
      [
        "bo",
        "ol"
      ],
      [
        "..",
        "."
      ],
      [
        "d",
        "a"
      ],
      [
        "p",
        "ad"
      ],
      [
        "st",
        "ar"
      ],
      [
        "di",
        "m"
      ],
      [
        "we",
        "ight"
      ],
      [
        "cl",
        "ass"
      ],
      [
        "c",
        "re"
      ],
      [
        "ce",
        "p"
      ],
      [
        "ima",
        "ge"
      ],
      [
        "an",
        "ge"
      ],
      [
        "gro",
        "up"
      ],
      [
        "s",
        "ing"
      ],
      [
        "T",
        "ype"
      ],
      [
        "ate",
        "g"
      ],
      [
        "------",
        "-"
      ],
      [
        "num",
        "ber"
      ],
      [
        "it",
        "em"
      ],
      [
        "_",
        "in"
      ],
      [
        "a",
        "v"
      ],
      [
        "r",
        "st"
      ],
      [
        "_",
        "id"
      ],
      [
        "i",
        "p"
      ],
      [
        "6",
        "4"
      ],
      [
        "V",
        "al"
      ],
      [
        "*",
        "*"
      ],
      [
        "q",
        "ue"
      ],
      [
        "app",
        "end"
      ],
      [
        "g",
        "i"
      ],
      [
        "kw",
        "args"
      ],
      [
        "i",
        "l"
      ],
      [
        "er",
        "e"
      ],
      [
        "amp",
        "le"
      ],
      [
        "Th",
        "is"
      ],
      [
        "C",
        "on"
      ],
      [
        "input",
        "s"
      ],
      [
        "g",
        "er"
      ],
      [
        "op",
        "tional"
      ],
      [
        "su",
        "b"
      ],
      [
        "on",
        "_"
      ],
      [
        "e",
        "lement"
      ],
      [
        "tr",
        "ans"
      ],
      [
        "use",
        "d"
      ],
      [
        "fi",
        "rst"
      ],
      [
        "st",
        "ep"
      ],
      [
        "y",
        "_"
      ],
      [
        "en",
        "co"
      ],
      [
        "com",
        "m"
      ],
      [
        "if",
        "i"
      ],
      [
        "i",
        "mp"
      ],
      [
        "it",
        "s"
      ],
      [
        "is",
        "instance"
      ],
      [
        "s",
        "pec"
      ],
      [
        "b",
        "lock"
      ],
      [
        "b",
        "le"
      ],
      [
        "d",
        "rop"
      ],
      [
        "o",
        "t"
      ],
      [
        "s",
        "er"
      ],
      [
        "el",
        "if"
      ],
      [
        "ma",
        "p"
      ],
      [
        "batch",
        "_size"
      ],
      [
        "ateg",
        "ori"
      ],
      [
        "at",
        "tr"
      ],
      [
        "a",
        "ct"
      ],
      [
        "ul",
        "d"
      ],
      [
        "Ar",
        "gs"
      ],
      [
        "0",
        "1"
      ],
      [
        "o",
        "s"
      ],
      [
        "whi",
        "ch"
      ],
      [
        "c",
        "_"
      ],
      [
        "le",
        "ct"
      ],
      [
        "ti",
        "m"
      ],
      [
        "con",
        "ver"
      ],
      [
        "id",
        "den"
      ],
      [
        "p",
        "la"
      ],
      [
        "meth",
        "od"
      ],
      [
        "g",
        "ra"
      ],
      [
        "v",
        "en"
      ],
      [
        "_",
        "type"
      ],
      [
        "h",
        "as"
      ],
      [
        "m",
        "s"
      ],
      [
        "me",
        "m"
      ],
      [
        "n",
        "d"
      ],
      [
        "a",
        "ck"
      ],
      [
        "h",
        "idden"
      ],
      [
        "et",
        "ri"
      ],
      [
        "t",
        "up"
      ],
      [
        "a",
        "ction"
      ],
      [
        "label",
        "s"
      ],
      [
        "----",
        "----"
      ],
      [
        "n",
        "el"
      ],
      [
        "Val",
        "ue"
      ],
      [
        "`",
        "."
      ],
      [
        "en",
        "er"
      ],
      [
        "_",
        "_"
      ],
      [
        "s",
        "c"
      ],
      [
        "co",
        "py"
      ],
      [
        "d",
        "is"
      ],
      [
        "]",
        "."
      ],
      [
        "v",
        "ari"
      ],
      [
        "li",
        "c"
      ],
      [
        "p",
        "d"
      ],
      [
        "_",
        "length"
      ],
      [
        "di",
        "ction"
      ],
      [
        "ty",
        "pes"
      ],
      [
        "e",
        "val"
      ],
      [
        "co",
        "un"
      ],
      [
        "dep",
        "th"
      ],
      [
        "fe",
        "at"
      ],
      [
        "amp",
        "les"
      ],
      [
        "tion",
        "s"
      ],
      [
        "_",
        "r"
      ],
      [
        "cal",
        "l"
      ],
      [
        "ta",
        "in"
      ],
      [
        "s",
        "um"
      ],
      [
        "b",
        "ut"
      ],
      [
        "lay",
        "er"
      ],
      [
        "l",
        "at"
      ],
      [
        "n",
        "ing"
      ],
      [
        "new",
        "_"
      ],
      [
        "ba",
        "ck"
      ],
      [
        "oc",
        "ab"
      ],
      [
        "sequ",
        "ence"
      ],
      [
        "ent",
        "s"
      ],
      [
        "o",
        "uld"
      ],
      [
        "int",
        "e"
      ],
      [
        "ad",
        "d_"
      ],
      [
        "i",
        "ti"
      ],
      [
        "n",
        "a"
      ],
      [
        "t",
        "ed"
      ],
      [
        "re",
        "ad"
      ],
      [
        "v",
        "ocab"
      ],
      [
        "n",
        "orm"
      ],
      [
        "in",
        "di"
      ],
      [
        "fi",
        "g"
      ],
      [
        "mem",
        "ory"
      ],
      [
        "or",
        "der"
      ],
      [
        "wi",
        "d"
      ],
      [
        "ar",
        "r"
      ],
      [
        "l",
        "ine"
      ],
      [
        "ation",
        "s"
      ],
      [
        "par",
        "se"
      ],
      [
        "fi",
        "l"
      ],
      [
        "and",
        "as"
      ],
      [
        "'",
        "]"
      ],
      [
        "on",
        "ly"
      ],
      [
        "pla",
        "ce"
      ],
      [
        "le",
        "f"
      ],
      [
        "h",
        "ave"
      ],
      [
        "fun",
        "c"
      ],
      [
        "al",
        "_"
      ],
      [
        "ati",
        "ve"
      ],
      [
        "r",
        "it"
      ],
      [
        "con",
        "tain"
      ],
      [
        "f",
        "in"
      ],
      [
        "qu",
        "er"
      ],
      [
        "los",
        "s"
      ],
      [
        "em",
        "b"
      ],
      [
        "at",
        "ed"
      ],
      [
        "bo",
        "o"
      ],
      [
        "wid",
        "th"
      ],
      [
        "Value",
        "Error"
      ],
      [
        "b",
        "u"
      ],
      [
        "par",
        "k"
      ],
      [
        "m",
        "ulti"
      ],
      [
        "_p",
        "ath"
      ],
      [
        "an",
        "y"
      ],
      [
        "max",
        "_"
      ],
      [
        "our",
        "ce"
      ],
      [
        "un",
        "i"
      ],
      [
        "r",
        "ight"
      ],
      [
        "re",
        "ct"
      ],
      [
        "re",
        "d"
      ],
      [
        "pro",
        "ces"
      ],
      [
        "o",
        "u"
      ],
      [
        "i",
        "as"
      ],
      [
        "p",
        "i"
      ],
      [
        "st",
        "ate"
      ],
      [
        "int",
        "er"
      ],
      [
        "_p",
        "ro"
      ],
      [
        "ch",
        "an"
      ],
      [
        ".",
        "\"\"\""
      ],
      [
        "cur",
        "re"
      ],
      [
        "fi",
        "ll"
      ],
      [
        "te",
        "mp"
      ],
      [
        "gi",
        "ven"
      ],
      [
        "do",
        "w"
      ],
      [
        "c",
        "ategori"
      ],
      [
        "to",
        "p"
      ],
      [
        "R",
        "e"
      ],
      [
        "_",
        "value"
      ],
      [
        "tup",
        "le"
      ],
      [
        ":",
        "`"
      ],
[...]
